const unsigned char modelo_tflite[] = {
  0x1c, 0x00, 0x00, 0x00, 0x54, 0x46, 0x4c, 0x33, 0x14, 0x00, 0x20, 0x00,
  0x1c, 0x00, 0x18, 0x00, 0x14, 0x00, 0x10, 0x00, 0x0c, 0x00, 0x00, 0x00,
  0x08, 0x00, 0x04, 0x00, 0x14, 0x00, 0x00, 0x00, 0x1c, 0x00, 0x00, 0x00,
  0x98, 0x00, 0x00, 0x00, 0xf0, 0x00, 0x00, 0x00, 0xd4, 0x0d, 0x00, 0x00,
  0xe4, 0x0d, 0x00, 0x00, 0xec, 0x13, 0x00, 0x00, 0x03, 0x00, 0x00, 0x00,
  0x01, 0x00, 0x00, 0x00, 0x10, 0x00, 0x00, 0x00, 0x00, 0x00, 0x0a, 0x00,
  0x10, 0x00, 0x0c, 0x00, 0x08, 0x00, 0x04, 0x00, 0x0a, 0x00, 0x00, 0x00,
  0x0c, 0x00, 0x00, 0x00, 0x1c, 0x00, 0x00, 0x00, 0x3c, 0x00, 0x00, 0x00,
  0x0f, 0x00, 0x00, 0x00, 0x73, 0x65, 0x72, 0x76, 0x69, 0x6e, 0x67, 0x5f,
  0x64, 0x65, 0x66, 0x61, 0x75, 0x6c, 0x74, 0x00, 0x01, 0x00, 0x00, 0x00,
  0x04, 0x00, 0x00, 0x00, 0x90, 0xff, 0xff, 0xff, 0x0a, 0x00, 0x00, 0x00,
  0x04, 0x00, 0x00, 0x00, 0x09, 0x00, 0x00, 0x00, 0x64, 0x65, 0x6e, 0x73,
  0x65, 0x5f, 0x32, 0x30, 0x30, 0x00, 0x00, 0x00, 0x01, 0x00, 0x00, 0x00,
  0x04, 0x00, 0x00, 0x00, 0x12, 0xf2, 0xff, 0xff, 0x04, 0x00, 0x00, 0x00,
  0x0f, 0x00, 0x00, 0x00, 0x64, 0x65, 0x6e, 0x73, 0x65, 0x5f, 0x31, 0x39,
  0x38, 0x5f, 0x69, 0x6e, 0x70, 0x75, 0x74, 0x00, 0x02, 0x00, 0x00, 0x00,
  0x34, 0x00, 0x00, 0x00, 0x04, 0x00, 0x00, 0x00, 0xdc, 0xff, 0xff, 0xff,
  0x0d, 0x00, 0x00, 0x00, 0x04, 0x00, 0x00, 0x00, 0x13, 0x00, 0x00, 0x00,
  0x43, 0x4f, 0x4e, 0x56, 0x45, 0x52, 0x53, 0x49, 0x4f, 0x4e, 0x5f, 0x4d,
  0x45, 0x54, 0x41, 0x44, 0x41, 0x54, 0x41, 0x00, 0x08, 0x00, 0x0c, 0x00,
  0x08, 0x00, 0x04, 0x00, 0x08, 0x00, 0x00, 0x00, 0x0c, 0x00, 0x00, 0x00,
  0x04, 0x00, 0x00, 0x00, 0x13, 0x00, 0x00, 0x00, 0x6d, 0x69, 0x6e, 0x5f,
  0x72, 0x75, 0x6e, 0x74, 0x69, 0x6d, 0x65, 0x5f, 0x76, 0x65, 0x72, 0x73,
  0x69, 0x6f, 0x6e, 0x00, 0x0e, 0x00, 0x00, 0x00, 0xe0, 0x0c, 0x00, 0x00,
  0xd8, 0x0c, 0x00, 0x00, 0xb8, 0x0c, 0x00, 0x00, 0x68, 0x0c, 0x00, 0x00,
  0xd8, 0x0b, 0x00, 0x00, 0xc8, 0x09, 0x00, 0x00, 0xb8, 0x01, 0x00, 0x00,
  0xa8, 0x00, 0x00, 0x00, 0xa0, 0x00, 0x00, 0x00, 0x98, 0x00, 0x00, 0x00,
  0x90, 0x00, 0x00, 0x00, 0x88, 0x00, 0x00, 0x00, 0x68, 0x00, 0x00, 0x00,
  0x04, 0x00, 0x00, 0x00, 0xc6, 0xf2, 0xff, 0xff, 0x04, 0x00, 0x00, 0x00,
  0x54, 0x00, 0x00, 0x00, 0x0c, 0x00, 0x00, 0x00, 0x08, 0x00, 0x0e, 0x00,
  0x08, 0x00, 0x04, 0x00, 0x08, 0x00, 0x00, 0x00, 0x10, 0x00, 0x00, 0x00,
  0x24, 0x00, 0x00, 0x00, 0x00, 0x00, 0x06, 0x00, 0x08, 0x00, 0x04, 0x00,
  0x06, 0x00, 0x00, 0x00, 0x04, 0x00, 0x00, 0x00, 0x00, 0x00, 0x00, 0x00,
  0x00, 0x00, 0x0a, 0x00, 0x10, 0x00, 0x0c, 0x00, 0x08, 0x00, 0x04, 0x00,
  0x0a, 0x00, 0x00, 0x00, 0x02, 0x00, 0x00, 0x00, 0x02, 0x00, 0x00, 0x00,
  0x04, 0x00, 0x00, 0x00, 0x06, 0x00, 0x00, 0x00, 0x32, 0x2e, 0x31, 0x35,
  0x2e, 0x30, 0x00, 0x00, 0x26, 0xf3, 0xff, 0xff, 0x04, 0x00, 0x00, 0x00,
  0x10, 0x00, 0x00, 0x00, 0x31, 0x2e, 0x35, 0x2e, 0x30, 0x00, 0x00, 0x00,
  0x00, 0x00, 0x00, 0x00, 0x00, 0x00, 0x00, 0x00, 0xec, 0xed, 0xff, 0xff,
  0xf0, 0xed, 0xff, 0xff, 0xf4, 0xed, 0xff, 0xff, 0xf8, 0xed, 0xff, 0xff,
  0x52, 0xf3, 0xff, 0xff, 0x04, 0x00, 0x00, 0x00, 0x00, 0x01, 0x00, 0x00,
  0xb2, 0xd1, 0xba, 0x3e, 0x00, 0x97, 0xba, 0xbe, 0xc4, 0x3a, 0xe8, 0xbd,
  0xb6, 0x4b, 0xe7, 0x3e, 0x59, 0x8c, 0xa2, 0x3c, 0x80, 0x6f, 0xbd, 0xbb,
  0x02, 0x77, 0x02, 0xbe, 0x08, 0xb6, 0xc2, 0xbe, 0xab, 0x95, 0x29, 0xbe,
  0xce, 0x8e, 0xf3, 0xbe, 0xd1, 0x0e, 0x28, 0x3d, 0xb0, 0xb2, 0x41, 0xbd,
  0xd3, 0x60, 0xcb, 0x3d, 0x33, 0x71, 0xf9, 0x3e, 0x6a, 0x34, 0xb9, 0xbe,
  0xb0, 0x8a, 0x82, 0xbc, 0x7c, 0x02, 0xc7, 0x3e, 0x00, 0x8e, 0xed, 0xbd,
  0x4c, 0xdd, 0xf8, 0x3e, 0x16, 0xf5, 0x51, 0xbe, 0x3b, 0x87, 0xf8, 0x3d,
  0xbc, 0x6a, 0x03, 0x3e, 0xf6, 0xc6, 0x89, 0x3e, 0xe2, 0x9f, 0xfd, 0xbd,
  0x1a, 0x1f, 0x1e, 0x3e, 0xcc, 0xd9, 0x73, 0x3e, 0xb0, 0x21, 0x6f, 0xbe,
  0xfe, 0x85, 0xc8, 0xbe, 0xed, 0x82, 0x70, 0xbe, 0xee, 0x9f, 0xd5, 0x3e,
  0x03, 0x8e, 0x0c, 0xbe, 0xf5, 0x54, 0xc4, 0xbe, 0x1a, 0x25, 0x87, 0xbe,
  0x9e, 0x06, 0xd7, 0x3e, 0x04, 0x6a, 0x30, 0x3e, 0x88, 0x3c, 0xb6, 0xbe,
  0xf9, 0x48, 0x1e, 0xbe, 0x70, 0x04, 0x2d, 0x3e, 0x48, 0xbf, 0xbb, 0xbe,
  0xae, 0x31, 0xdf, 0x3d, 0xe5, 0x72, 0x65, 0x3e, 0x80, 0x0f, 0xea, 0xbe,
  0x1f, 0x5e, 0x86, 0xbe, 0x76, 0xac, 0xc9, 0xbe, 0xd5, 0xb3, 0x1e, 0xbe,
  0xa2, 0x23, 0xaa, 0xbe, 0x69, 0x7a, 0x0c, 0xbe, 0x20, 0xcc, 0xfb, 0xbe,
  0xd4, 0xa4, 0xe9, 0xbe, 0x3f, 0x9e, 0x8c, 0x3c, 0x70, 0x0a, 0x42, 0xbd,
  0x80, 0xcd, 0xf5, 0xbe, 0x51, 0xf3, 0x94, 0x3e, 0xa8, 0x98, 0x43, 0x3e,
  0x54, 0xdb, 0x9b, 0x3e, 0x1d, 0x03, 0x35, 0xbe, 0xc8, 0x73, 0x81, 0x3e,
  0x30, 0xa1, 0x43, 0xbe, 0x66, 0x31, 0x42, 0xbe, 0x59, 0x99, 0xc7, 0x3c,
  0xf7, 0x23, 0xf2, 0xbe, 0x6d, 0x8c, 0x9e, 0xbe, 0xe9, 0x43, 0xd0, 0xbe,
  0xd9, 0x36, 0xd8, 0xbe, 0x5e, 0xf4, 0xff, 0xff, 0x04, 0x00, 0x00, 0x00,
  0x00, 0x08, 0x00, 0x00, 0x4c, 0x86, 0x11, 0x3e, 0x40, 0xfc, 0xd9, 0xbb,
  0x74, 0x21, 0xc2, 0xbd, 0xa8, 0x76, 0x7e, 0xbd, 0xfa, 0xc0, 0x63, 0x3e,
  0x59, 0x6c, 0x27, 0xbe, 0x7f, 0xe7, 0xa2, 0x3e, 0x78, 0x2e, 0x87, 0xbd,
  0xd0, 0xba, 0x06, 0x3e, 0x10, 0x74, 0xf2, 0xbc, 0xa2, 0xd6, 0x2d, 0x3e,
  0x90, 0x5e, 0xe3, 0xbc, 0xf6, 0x78, 0x17, 0x3e, 0x58, 0xbd, 0xbe, 0x3d,
  0x62, 0x2d, 0x76, 0x3e, 0xc0, 0xdc, 0x13, 0x3e, 0x12, 0xa4, 0xf8, 0xbd,
  0x90, 0x1e, 0xb6, 0xbc, 0xec, 0x54, 0xbe, 0xbd, 0x00, 0xb1, 0x06, 0x3d,
  0x0a, 0x2f, 0x07, 0x3e, 0x70, 0x2a, 0x55, 0xbd, 0x80, 0xf8, 0x5e, 0x3c,
  0xfa, 0xe4, 0xad, 0xbe, 0x48, 0x37, 0x58, 0xbe, 0x42, 0xbb, 0x7e, 0x3e,
  0xc0, 0x21, 0x9a, 0x3d, 0x7f, 0xcf, 0xa9, 0x3e, 0x61, 0xa4, 0x85, 0x3e,
  0xcc, 0x0f, 0x0c, 0x3e, 0xbc, 0xae, 0x93, 0xbe, 0xbc, 0x38, 0x9f, 0xbd,
  0x4a, 0x2f, 0xd7, 0x3e, 0x09, 0xd9, 0x9d, 0xbe, 0x88, 0x97, 0xad, 0x3e,
  0x16, 0xdf, 0x5d, 0xbe, 0x06, 0x74, 0x58, 0x3d, 0x18, 0x45, 0xdf, 0xbd,
  0xcb, 0x35, 0xe7, 0xbc, 0x30, 0x22, 0xbf, 0x3c, 0x65, 0x74, 0x4d, 0xbe,
  0x28, 0xbd, 0x88, 0xbe, 0x88, 0x0d, 0xb6, 0xbe, 0x03, 0xc4, 0x91, 0x3e,
  0x2c, 0x6c, 0x94, 0xbe, 0xf6, 0xd4, 0xaa, 0x3e, 0xc8, 0x04, 0xc0, 0xbd,
  0xd1, 0x9b, 0xfc, 0xbd, 0x8a, 0x7e, 0x7d, 0x3e, 0x16, 0x5d, 0x95, 0xbe,
  0xa9, 0xd7, 0x42, 0x3e, 0x75, 0xd8, 0x5a, 0x3e, 0x83, 0x96, 0xab, 0x3e,
  0x0e, 0x26, 0xba, 0x3d, 0x8c, 0x17, 0x94, 0x3d, 0x23, 0x82, 0xa8, 0x3e,
  0x0e, 0xf4, 0x80, 0x3e, 0xbb, 0xef, 0xa4, 0x3e, 0x8a, 0xb6, 0x36, 0x3e,
  0xf0, 0xe5, 0x75, 0xbe, 0x75, 0xf0, 0x23, 0x3e, 0x8e, 0x13, 0x6c, 0xbe,
  0x43, 0xd8, 0xdb, 0xbc, 0x31, 0x51, 0xa1, 0x3d, 0x20, 0x73, 0x11, 0xbc,
  0x20, 0x67, 0x21, 0xbc, 0x32, 0x6d, 0x84, 0xbe, 0x54, 0x62, 0x70, 0xbe,
  0xd1, 0x52, 0x85, 0xbe, 0xa8, 0xaf, 0x3e, 0xbd, 0x60, 0xc9, 0x9f, 0x3d,
  0x3f, 0xd5, 0x8f, 0x3e, 0xf9, 0x89, 0xb3, 0xbe, 0x18, 0x39, 0xad, 0xbd,
  0x40, 0xf6, 0x7b, 0xbc, 0x08, 0xa3, 0x3a, 0x3d, 0x21, 0xad, 0xaf, 0xbe,
  0x67, 0xe8, 0xa1, 0x3e, 0xb8, 0x72, 0x88, 0x3d, 0x43, 0xa7, 0x0d, 0xbe,
  0xbd, 0x20, 0x82, 0x3e, 0xf0, 0x43, 0x56, 0xbd, 0x7c, 0x9a, 0xc9, 0x3d,
  0x3b, 0x7f, 0xab, 0xbe, 0x86, 0x37, 0x08, 0x3e, 0x13, 0x43, 0x98, 0xbe,
  0xeb, 0xce, 0xb3, 0xbe, 0x00, 0xbb, 0x6d, 0xbe, 0x3c, 0x7f, 0x13, 0x3e,
  0x30, 0x95, 0x5c, 0x3d, 0x72, 0x7c, 0x08, 0xbe, 0x20, 0xee, 0xdd, 0x3d,
  0xb1, 0xd8, 0x66, 0xbe, 0xb0, 0x48, 0x00, 0x3d, 0x20, 0xb3, 0xd4, 0x3c,
  0x9e, 0x71, 0x1d, 0x3e, 0xed, 0xda, 0xe2, 0x3d, 0x4d, 0x61, 0x4c, 0xbd,
  0x3f, 0xe1, 0x4a, 0x3e, 0xa3, 0xba, 0xbc, 0xbb, 0xc5, 0xcc, 0x71, 0xbc,
  0xb1, 0xc5, 0xad, 0x3c, 0x66, 0x88, 0x9d, 0xbc, 0xa1, 0xad, 0x80, 0xbe,
  0x73, 0x9a, 0xb3, 0x3e, 0xd9, 0xa8, 0x55, 0xbe, 0x07, 0x7d, 0x91, 0x3e,
  0x00, 0x53, 0xfc, 0x3d, 0xa9, 0x47, 0x8b, 0xbb, 0x33, 0xd8, 0x0e, 0x3e,
  0x4e, 0x01, 0x46, 0x3e, 0x22, 0x8e, 0x25, 0x3e, 0xad, 0x39, 0x33, 0xbd,
  0xad, 0x6b, 0xea, 0xbe, 0x53, 0x6d, 0xa6, 0xbe, 0x3f, 0x40, 0xf4, 0x3d,
  0xac, 0x5b, 0x54, 0x3e, 0x5f, 0x29, 0x0c, 0x3e, 0xc7, 0x0e, 0x92, 0x3e,
  0xa5, 0x64, 0x5d, 0x3e, 0x3d, 0xf3, 0x18, 0x3d, 0x60, 0x59, 0xd7, 0xbe,
  0xc1, 0x0a, 0x36, 0xbe, 0xa2, 0xb6, 0xe8, 0xbd, 0x88, 0xad, 0x36, 0xbe,
  0x47, 0x53, 0x5c, 0xbe, 0x48, 0x58, 0x1e, 0x3e, 0x07, 0x33, 0xa9, 0x3d,
  0x3f, 0x4b, 0x85, 0xbe, 0xa6, 0xf0, 0x30, 0x3e, 0xfe, 0xa1, 0x62, 0xbc,
  0x05, 0xc8, 0x61, 0xbe, 0xab, 0x26, 0x6e, 0xbe, 0xfe, 0x5e, 0x78, 0xbe,
  0x13, 0x0d, 0x23, 0x3e, 0x0f, 0x90, 0x9f, 0x3e, 0xe0, 0x84, 0xa9, 0xbe,
  0x87, 0xc2, 0x54, 0xbd, 0xe3, 0x35, 0x5c, 0xbe, 0xdc, 0xc8, 0x89, 0x3e,
  0x9e, 0x0f, 0x81, 0x3e, 0x56, 0x53, 0x43, 0x3e, 0x64, 0x09, 0xc1, 0x3d,
  0x75, 0x6f, 0xcd, 0xbe, 0x0b, 0xf2, 0x6a, 0xbe, 0x9c, 0x1d, 0xb4, 0x3e,
  0xdd, 0x70, 0x07, 0xbe, 0xae, 0xae, 0xb8, 0xbd, 0xb8, 0xfe, 0x27, 0xbe,
  0x61, 0x81, 0xc7, 0xbd, 0x40, 0xe2, 0xf7, 0xbd, 0x21, 0x25, 0x73, 0x3e,
  0x1f, 0x86, 0x24, 0x3e, 0x4b, 0xda, 0x25, 0xbd, 0xec, 0xcb, 0x91, 0x3d,
  0x9e, 0x96, 0x34, 0x3e, 0x82, 0x53, 0x0f, 0xbe, 0xf8, 0x4f, 0x02, 0x3e,
  0xa4, 0xd0, 0xaa, 0xbe, 0x20, 0x40, 0x9d, 0xbd, 0x00, 0x83, 0x93, 0x3b,
  0xfc, 0xb6, 0xed, 0x3d, 0xf9, 0xb4, 0x8d, 0x3e, 0x40, 0xaf, 0xad, 0xbe,
  0xca, 0x37, 0x22, 0x3e, 0xc0, 0xa5, 0xd2, 0xbc, 0x23, 0xa0, 0xa7, 0x3e,
  0xfc, 0xf1, 0xb3, 0xbe, 0x44, 0xbb, 0x81, 0xbd, 0xde, 0x7d, 0x95, 0xbe,
  0x04, 0x1f, 0x26, 0xbe, 0x1b, 0x34, 0x63, 0xbe, 0x16, 0xbe, 0x87, 0xbe,
  0x18, 0xa5, 0x32, 0xbd, 0x30, 0x79, 0xb2, 0xbc, 0xc9, 0x0f, 0x83, 0xbe,
  0xb0, 0x55, 0x6d, 0xbe, 0xd5, 0x35, 0x3d, 0xbe, 0xfc, 0xc0, 0xbc, 0x3d,
  0x5b, 0x72, 0x1b, 0xbe, 0x2d, 0x41, 0x97, 0x3e, 0x20, 0x92, 0xe4, 0xbc,
  0x6e, 0x81, 0x40, 0x3e, 0xbf, 0xfe, 0x72, 0xbe, 0x7f, 0xad, 0x91, 0xbe,
  0xd6, 0x2a, 0x5a, 0x3e, 0xb2, 0x54, 0x4a, 0x3e, 0xa0, 0xfa, 0x36, 0xbc,
  0x00, 0xf2, 0x63, 0xbd, 0xa9, 0x92, 0xa8, 0x3e, 0xa8, 0x67, 0xed, 0x3d,
  0x00, 0xeb, 0x8f, 0x3a, 0x90, 0xa7, 0xed, 0xbe, 0x35, 0x46, 0xa5, 0x3e,
  0x53, 0xc7, 0xba, 0xbd, 0x26, 0xf3, 0x50, 0x3e, 0x25, 0x3c, 0x88, 0x3e,
  0x13, 0x71, 0x05, 0x3e, 0xbd, 0x38, 0x43, 0x3e, 0x50, 0x56, 0x0d, 0xbd,
  0x54, 0x9c, 0x31, 0x3d, 0x66, 0xea, 0x96, 0xbd, 0xd6, 0x9f, 0xb6, 0x3e,
  0x73, 0x0e, 0x4d, 0x3e, 0x8f, 0x38, 0x6b, 0x3e, 0xba, 0xd4, 0xf7, 0x3d,
  0x08, 0x80, 0xfc, 0xbd, 0xd4, 0x50, 0x9f, 0xbd, 0x3c, 0xa5, 0xa6, 0xbe,
  0x83, 0x77, 0xa2, 0xbe, 0x73, 0xfd, 0x11, 0x3d, 0x35, 0x6f, 0x4e, 0x3e,
  0x74, 0x27, 0x81, 0x3e, 0x75, 0xab, 0x13, 0x3d, 0xbd, 0x6f, 0xa4, 0xbc,
  0x10, 0xfd, 0x80, 0xbe, 0x12, 0x58, 0x89, 0xbe, 0x3a, 0x22, 0xa2, 0x3e,
  0xe2, 0x7f, 0x7a, 0x3e, 0x06, 0x8f, 0x58, 0x3e, 0x2f, 0xdb, 0x61, 0x3e,
  0x96, 0xf3, 0x01, 0x3e, 0x1e, 0xcc, 0x4b, 0x3d, 0xc9, 0x06, 0x27, 0xbc,
  0xbb, 0xa6, 0x61, 0xbe, 0x9f, 0xae, 0xad, 0x3e, 0xdc, 0x76, 0x42, 0xbd,
  0xba, 0xfd, 0x97, 0x3d, 0xbf, 0x1a, 0x7d, 0xbe, 0xad, 0x6c, 0x7d, 0xbe,
  0xbd, 0xaa, 0x87, 0x3e, 0x38, 0xce, 0xb3, 0x3d, 0x4e, 0x3a, 0x3f, 0xbe,
  0x13, 0xd5, 0xe3, 0x3d, 0x07, 0x86, 0x86, 0x3e, 0x70, 0x69, 0x4a, 0x3e,
  0x02, 0x5b, 0x5d, 0x3e, 0xfc, 0xc1, 0x39, 0xbe, 0x8a, 0x3e, 0x73, 0x3e,
  0x04, 0xfc, 0x62, 0xbe, 0x19, 0x39, 0x9e, 0x3e, 0x9c, 0x93, 0x0a, 0xbe,
  0x60, 0xad, 0x13, 0x3e, 0x9c, 0xb4, 0x11, 0xbe, 0x24, 0x9e, 0x2f, 0xbe,
  0x2d, 0xdf, 0x72, 0xbe, 0x15, 0xad, 0xae, 0xbc, 0x40, 0xaa, 0x7a, 0x3e,
  0xa0, 0xcb, 0x8f, 0x3e, 0x3b, 0x2e, 0x50, 0xbe, 0x34, 0x78, 0x0c, 0x3e,
  0x35, 0x43, 0x59, 0xbe, 0x77, 0x99, 0x4b, 0x3e, 0x60, 0x79, 0x9d, 0xbc,
  0xc5, 0xcf, 0xa8, 0x3e, 0xe6, 0x0f, 0xaa, 0x3e, 0x8a, 0x8b, 0x64, 0xbe,
  0x28, 0x18, 0x99, 0x3e, 0xcf, 0x72, 0x80, 0x3e, 0x0e, 0xdc, 0x8f, 0x3e,
  0xce, 0xd9, 0x43, 0x3e, 0x57, 0xa2, 0x8f, 0xbd, 0xae, 0x9b, 0x0b, 0x3d,
  0x0f, 0x2c, 0x83, 0x3e, 0xdd, 0xf4, 0x83, 0x3e, 0x89, 0x71, 0x04, 0x3e,
  0x41, 0x84, 0x55, 0xbd, 0xce, 0x32, 0x39, 0x3c, 0x1c, 0x61, 0xce, 0xbd,
  0x48, 0x80, 0xa2, 0xbe, 0xed, 0x13, 0x8c, 0xbe, 0xac, 0x39, 0x8a, 0xbe,
  0xdb, 0x8f, 0x16, 0x3e, 0x4a, 0xdb, 0x64, 0x3e, 0x9e, 0xbc, 0x73, 0x3e,
  0xec, 0xa6, 0x2b, 0xbe, 0x1e, 0xad, 0x5f, 0xbe, 0x44, 0xd2, 0x45, 0x3e,
  0x8f, 0xe0, 0x81, 0x3d, 0x5b, 0x5a, 0x4d, 0x3e, 0xb8, 0x6c, 0x02, 0x3e,
  0x24, 0x7b, 0x08, 0xbe, 0x08, 0x7f, 0xd0, 0x3d, 0x2b, 0xfe, 0xb1, 0x3e,
  0x98, 0xed, 0x51, 0x3e, 0x26, 0xb3, 0x26, 0x3e, 0x61, 0xb6, 0xee, 0xbd,
  0xeb, 0xc3, 0x46, 0xbe, 0x7e, 0x5a, 0x6f, 0x3e, 0x37, 0xc3, 0xb1, 0xbe,
  0x4d, 0x1b, 0xa6, 0xbe, 0x93, 0x86, 0xb4, 0xbe, 0x42, 0xf1, 0x73, 0x3e,
  0xaf, 0xec, 0x97, 0x3e, 0xea, 0xf0, 0x48, 0x3e, 0x7e, 0x94, 0x62, 0x3e,
  0x00, 0xb4, 0x54, 0x3d, 0x2e, 0x2c, 0x58, 0x3e, 0xa0, 0x2f, 0x0a, 0x3e,
  0xc1, 0xff, 0x52, 0xbe, 0x75, 0xf8, 0x94, 0xbe, 0xbc, 0x39, 0x8c, 0xbe,
  0xa0, 0x41, 0xc6, 0x3c, 0xac, 0x18, 0xa1, 0x3d, 0xb6, 0xb6, 0x00, 0x3e,
  0xe0, 0x25, 0x81, 0x3d, 0x7b, 0x7b, 0x17, 0xbe, 0x7e, 0x61, 0xa0, 0xbe,
  0x52, 0xd3, 0x3d, 0x3e, 0xa4, 0xcf, 0xa9, 0xbe, 0xa8, 0x5f, 0x98, 0xbe,
  0x3d, 0x32, 0x80, 0x3e, 0x7c, 0xf5, 0x16, 0xbe, 0xe0, 0x3c, 0xe1, 0xbc,
  0x00, 0xf7, 0x09, 0x3d, 0x80, 0x88, 0xce, 0x3d, 0xb3, 0x33, 0x15, 0xbe,
  0xc8, 0x23, 0x34, 0xbe, 0x50, 0x50, 0xb3, 0xbe, 0x74, 0x96, 0x8f, 0xbd,
  0xb2, 0x28, 0x5b, 0x3e, 0x8d, 0xc7, 0xd6, 0xbc, 0x5a, 0x8e, 0x5b, 0x3e,
  0x3f, 0x20, 0x1a, 0x3e, 0x14, 0xf5, 0x7d, 0xbe, 0xf9, 0x36, 0x0a, 0xbc,
  0xf1, 0x2f, 0x04, 0xbd, 0xcc, 0xbf, 0xa1, 0xbe, 0x4b, 0x4d, 0x60, 0x3e,
  0xb6, 0x35, 0x07, 0xbe, 0x74, 0x25, 0x29, 0x3e, 0x03, 0xb1, 0xf4, 0x3d,
  0x17, 0xd1, 0x7f, 0x3e, 0xc4, 0xce, 0x85, 0xbe, 0xfe, 0x60, 0x34, 0x3e,
  0xbd, 0x04, 0x58, 0x3e, 0x2d, 0x5f, 0x90, 0x3e, 0xf6, 0xb7, 0x1f, 0xbe,
  0xd8, 0x28, 0xb0, 0x3e, 0x0a, 0x33, 0x75, 0xbe, 0x8a, 0x23, 0x32, 0xbe,
  0x8c, 0x38, 0xb9, 0x3d, 0x7b, 0x98, 0x76, 0xbe, 0x39, 0x53, 0x97, 0xbe,
  0xaf, 0xa0, 0x9e, 0x3e, 0xd8, 0x87, 0xba, 0x3e, 0x08, 0xa9, 0xe9, 0x3d,
  0x7c, 0x41, 0xa6, 0xbe, 0x95, 0xaf, 0x89, 0xbe, 0x1a, 0x4b, 0x1a, 0x3e,
  0x47, 0xf1, 0x32, 0x3e, 0xd6, 0x7b, 0x87, 0xbd, 0xa4, 0xd8, 0xa0, 0x3c,
  0x6b, 0x2c, 0x02, 0x3e, 0xcc, 0x9d, 0x80, 0xbe, 0xeb, 0x81, 0x8f, 0xbd,
  0xae, 0x32, 0x9e, 0xbe, 0xa2, 0x0d, 0xa1, 0x3e, 0xbc, 0xa4, 0xb3, 0x3e,
  0x00, 0xe1, 0xe4, 0xbb, 0x19, 0xc8, 0x0c, 0xbd, 0x73, 0x3d, 0x56, 0x3e,
  0x79, 0x87, 0x9b, 0xbe, 0x93, 0x6c, 0x4c, 0x3e, 0x2f, 0x1f, 0xa6, 0x3d,
  0x4a, 0xe2, 0x40, 0x3e, 0xd7, 0xc1, 0xa3, 0xbe, 0x5b, 0xd7, 0x69, 0xbe,
  0x68, 0xf3, 0xa7, 0xbe, 0x5f, 0x6e, 0x6f, 0xbe, 0xa0, 0x60, 0xb6, 0xbe,
  0xc7, 0x4f, 0xb5, 0xbe, 0xe0, 0x5a, 0x28, 0x3e, 0xeb, 0x1a, 0x68, 0x3e,
  0xcd, 0x1c, 0x0e, 0xbd, 0xeb, 0x28, 0x89, 0x3d, 0xb2, 0x81, 0xa3, 0x3d,
  0x91, 0x15, 0x04, 0x3e, 0x90, 0xa8, 0x9d, 0xbc, 0x6e, 0x9d, 0x7f, 0x3e,
  0x64, 0x26, 0x6f, 0x3e, 0x30, 0xc4, 0xc5, 0x3d, 0xe8, 0xc2, 0x9d, 0xbd,
  0x62, 0x18, 0x6f, 0xbe, 0xe0, 0xcb, 0x92, 0x3e, 0xbb, 0x2d, 0x8e, 0xbe,
  0x33, 0x22, 0x91, 0xbe, 0x95, 0x72, 0x58, 0x3e, 0x38, 0xbf, 0x6f, 0xbe,
  0x0d, 0xf0, 0xda, 0xbd, 0x73, 0x2f, 0x68, 0x3e, 0x7f, 0x0c, 0x15, 0xbe,
  0x59, 0xce, 0x65, 0xbe, 0xf4, 0x3a, 0xb1, 0x3d, 0x7f, 0xde, 0xac, 0xbd,
  0x6f, 0x44, 0xae, 0x3d, 0x6d, 0x95, 0x53, 0xbd, 0x67, 0xc1, 0x12, 0xbd,
  0x5e, 0x6b, 0x81, 0xbe, 0x45, 0x15, 0x04, 0x3e, 0xec, 0x04, 0x4a, 0x3e,
  0x3b, 0x96, 0x95, 0xbe, 0x0b, 0xec, 0x41, 0xbe, 0x66, 0x37, 0x75, 0xbe,
  0xe6, 0x7e, 0x3d, 0xbe, 0x15, 0x3d, 0x94, 0x3e, 0x63, 0x60, 0xe2, 0x3c,
  0x01, 0x4f, 0x9e, 0x3e, 0x77, 0x25, 0x8f, 0x3e, 0x2b, 0x40, 0xd4, 0x3d,
  0x18, 0xe4, 0x51, 0xbe, 0x17, 0x5d, 0x5c, 0xbe, 0x7c, 0x0d, 0x9a, 0xbe,
  0xa0, 0xc3, 0x20, 0xbe, 0xa8, 0xc7, 0x59, 0xbc, 0x4b, 0xcc, 0x56, 0x3e,
  0x29, 0x56, 0x2c, 0x3e, 0xe2, 0x25, 0x4b, 0x3e, 0x5b, 0xdd, 0x71, 0xbe,
  0x92, 0x40, 0x32, 0xbe, 0xf4, 0xc8, 0xb1, 0xbe, 0x6c, 0x73, 0xec, 0x3d,
  0x31, 0x3a, 0x62, 0x3e, 0xe8, 0xe4, 0xc9, 0xbd, 0x17, 0x01, 0x31, 0x3d,
  0x7a, 0xe2, 0xf0, 0xbd, 0xf0, 0x92, 0x01, 0x3d, 0x40, 0x76, 0x82, 0x3d,
  0x12, 0xe9, 0x58, 0xbe, 0x9d, 0x79, 0x93, 0xbd, 0x66, 0x75, 0x32, 0x3e,
  0xb1, 0xb9, 0xc5, 0x3d, 0x6d, 0x7d, 0x3d, 0x3d, 0xa0, 0xba, 0x01, 0xba,
  0xe3, 0xe0, 0x94, 0xbd, 0x2d, 0x26, 0x96, 0xbd, 0x1e, 0x88, 0x2d, 0xbe,
  0x21, 0x11, 0x44, 0xbd, 0x76, 0x84, 0xd3, 0xbe, 0x53, 0xeb, 0xbf, 0x3c,
  0xb4, 0xa1, 0x82, 0x3e, 0xb5, 0x73, 0x1b, 0x3e, 0xe8, 0xe9, 0x2a, 0x3d,
  0x11, 0xa9, 0x2c, 0xbe, 0x56, 0xb9, 0xf1, 0x3c, 0x0d, 0x7d, 0x99, 0x3e,
  0x6c, 0xbf, 0xb4, 0x3c, 0xba, 0xa5, 0x8b, 0xbd, 0x7a, 0x9d, 0x7e, 0x3e,
  0x24, 0x09, 0x0b, 0x3e, 0xe4, 0x44, 0x11, 0x3e, 0xf1, 0x2f, 0x0d, 0xbd,
  0x80, 0xc0, 0x47, 0xbc, 0x4b, 0xdf, 0xb3, 0xbe, 0x1a, 0xdb, 0x9e, 0xbe,
  0x15, 0x5c, 0x91, 0x3e, 0x9c, 0x81, 0xbe, 0xbe, 0xed, 0x3c, 0xa3, 0x3e,
  0x3e, 0xf7, 0x64, 0x3e, 0xf5, 0x8f, 0xdb, 0xbc, 0x06, 0x61, 0x9d, 0xbe,
  0x62, 0x04, 0x98, 0xbe, 0x30, 0xe2, 0x4b, 0xbd, 0x4e, 0x4d, 0xb1, 0x3d,
  0x2e, 0x18, 0x6a, 0xbe, 0x5a, 0x6e, 0xa6, 0xbe, 0x5f, 0x90, 0x21, 0xbd,
  0x60, 0x53, 0x90, 0xbe, 0x44, 0x67, 0x8a, 0x3d, 0xd7, 0xf1, 0xe9, 0xbd,
  0x9a, 0x4a, 0xc9, 0x3c, 0x2f, 0x50, 0x7a, 0x3e, 0x11, 0x74, 0x18, 0xbc,
  0x82, 0xf6, 0x52, 0xbe, 0x0c, 0x15, 0xb6, 0x3d, 0x6d, 0x4c, 0x9b, 0x3e,
  0xd5, 0xac, 0x67, 0x3e, 0xea, 0x09, 0x6c, 0x3e, 0xf4, 0xae, 0x96, 0xbe,
  0x8a, 0x13, 0x36, 0xbe, 0xa6, 0xc5, 0x19, 0x3e, 0xe4, 0xf6, 0x70, 0xbe,
  0xcc, 0xe4, 0xb3, 0xbd, 0xc3, 0x7c, 0x81, 0x3e, 0xc2, 0x7e, 0x5d, 0x3e,
  0x0f, 0x28, 0xb3, 0x3e, 0xe9, 0x84, 0xa0, 0xbe, 0x17, 0x7d, 0xa5, 0x3e,
  0xae, 0x8b, 0xc4, 0xbc, 0x77, 0xb6, 0x50, 0x3e, 0xbc, 0x95, 0x23, 0xbe,
  0x04, 0x7f, 0x43, 0x3e, 0x45, 0x7f, 0x36, 0x3e, 0x4f, 0x85, 0xd0, 0x3d,
  0x29, 0xcc, 0x1b, 0xbe, 0xb4, 0x64, 0x35, 0x3e, 0xa7, 0xdf, 0x44, 0xbe,
  0x10, 0x73, 0x22, 0xbd, 0x3f, 0xc3, 0xce, 0x3d, 0x45, 0x0b, 0x27, 0x3e,
  0xd5, 0x31, 0x25, 0xbe, 0x88, 0x9b, 0x7e, 0xbe, 0xe2, 0xd9, 0xa0, 0xbe,
  0x4c, 0x88, 0x17, 0xbe, 0xf6, 0xbf, 0xfc, 0xbd, 0xe0, 0xa9, 0x87, 0xbc,
  0x0c, 0x55, 0xa9, 0xbe, 0x14, 0x88, 0x7c, 0xbe, 0x28, 0x9c, 0x13, 0x3d,
  0x48, 0xad, 0x61, 0x3d, 0xb0, 0xbc, 0xcf, 0xbd, 0x52, 0x0f, 0x34, 0x3e,
  0x6a, 0xfc, 0xff, 0xff, 0x04, 0x00, 0x00, 0x00, 0x00, 0x02, 0x00, 0x00,
  0xf8, 0x54, 0x56, 0x3c, 0x16, 0xc1, 0x44, 0xbe, 0xe4, 0x9e, 0xa4, 0xbe,
  0x59, 0xa1, 0x49, 0x3e, 0x76, 0x4b, 0x60, 0x3e, 0x56, 0x42, 0x02, 0x3e,
  0xcc, 0xc6, 0xd1, 0x3d, 0xec, 0xd3, 0xe7, 0x3d, 0x65, 0xa2, 0x98, 0x3d,
  0xee, 0x31, 0x64, 0x3d, 0x6a, 0x49, 0x87, 0xbe, 0x23, 0x5f, 0xf8, 0x3d,
  0xba, 0x0b, 0x55, 0x3e, 0xb8, 0x8f, 0x02, 0x3d, 0xb9, 0x88, 0x8e, 0x3e,
  0x17, 0xdc, 0x62, 0x3e, 0x7d, 0x8e, 0xb7, 0x3e, 0x2d, 0xfe, 0x88, 0x3d,
  0x30, 0xba, 0xa3, 0xbe, 0x41, 0x0d, 0x21, 0x3d, 0x72, 0xbb, 0x95, 0xbd,
  0x50, 0x0d, 0xa7, 0x3d, 0x87, 0xf1, 0x44, 0x3e, 0x77, 0xba, 0x5e, 0x3e,
  0x12, 0x9d, 0xaf, 0x3e, 0x0b, 0x08, 0xbb, 0xbe, 0x04, 0x4c, 0x75, 0xbe,
  0x29, 0xe4, 0x93, 0x3d, 0x56, 0x56, 0x0c, 0xbe, 0x08, 0xa0, 0x81, 0xbe,
  0x40, 0x9f, 0x57, 0xbc, 0x2c, 0x6c, 0x45, 0xbe, 0x58, 0x66, 0x02, 0x3c,
  0x30, 0x96, 0x93, 0x3e, 0xa6, 0xae, 0x3b, 0x3e, 0x16, 0x5b, 0xb0, 0xbe,
  0x82, 0xdb, 0xaa, 0x3b, 0xdc, 0x19, 0xb9, 0xbd, 0x60, 0x06, 0xd1, 0x3d,
  0x65, 0x39, 0x6f, 0xbe, 0x13, 0xdb, 0xe2, 0xbe, 0xba, 0x91, 0x24, 0x3e,
  0x92, 0xa5, 0x05, 0x3d, 0x30, 0xc9, 0x96, 0xbe, 0xb7, 0x31, 0x80, 0xbd,
  0x2a, 0xe9, 0x91, 0x3e, 0x0c, 0x5f, 0x47, 0x3e, 0x83, 0xb4, 0x90, 0x3e,
  0x9d, 0xd7, 0x8a, 0x3d, 0x63, 0x72, 0xe6, 0xbd, 0x18, 0xdd, 0xa6, 0x3e,
  0x2b, 0x57, 0x40, 0x3d, 0x7c, 0xda, 0x6d, 0xbe, 0x8a, 0xc7, 0x92, 0xbe,
  0xda, 0xbe, 0x11, 0x3d, 0x92, 0xf5, 0x3f, 0x3e, 0xb8, 0xb0, 0x89, 0xbe,
  0xac, 0x2e, 0xc8, 0xbe, 0x0c, 0x56, 0x8b, 0xbe, 0x6f, 0xda, 0xa1, 0xbe,
  0xb8, 0xfa, 0xd3, 0xbd, 0x96, 0xda, 0x31, 0x3e, 0x60, 0x0a, 0xcb, 0x3e,
  0xf9, 0x12, 0x1e, 0xbe, 0x05, 0x8b, 0xb3, 0x3e, 0xfc, 0x37, 0x39, 0xbe,
  0xe9, 0x69, 0xc5, 0xbe, 0xbd, 0x1e, 0xea, 0xbd, 0xbe, 0x0b, 0x85, 0x3e,
  0xf9, 0xa1, 0x74, 0x3e, 0x2b, 0xf4, 0x32, 0xbe, 0xbb, 0xf8, 0xea, 0xbd,
  0x5a, 0x41, 0xb1, 0xbe, 0xfb, 0x12, 0x0b, 0x3d, 0x41, 0x31, 0xc5, 0x3e,
  0x21, 0xdd, 0xd6, 0xbc, 0xb2, 0x99, 0x25, 0x3e, 0xe9, 0x7a, 0xc6, 0xbe,
  0x18, 0x5f, 0xe8, 0x3d, 0xe7, 0xc4, 0xc1, 0xbe, 0xdf, 0x49, 0xb6, 0xbc,
  0x59, 0xc6, 0xa4, 0xbe, 0xb7, 0x81, 0x1c, 0x3e, 0xa4, 0x5a, 0x8a, 0xbe,
  0xc7, 0x72, 0xdc, 0x3e, 0x72, 0x76, 0xe0, 0x3e, 0x9d, 0xbb, 0x2d, 0x3e,
  0x94, 0x40, 0xa4, 0x3e, 0x96, 0x8e, 0x9d, 0x3e, 0xaa, 0x00, 0xed, 0xbb,
  0x4d, 0x7f, 0x6d, 0xbc, 0x22, 0xbd, 0x63, 0x3e, 0x7b, 0xff, 0xdf, 0x3e,
  0x86, 0xb9, 0x04, 0x3e, 0x9f, 0x1b, 0x81, 0x3e, 0xf9, 0xbb, 0xbf, 0x3e,
  0xc7, 0x5a, 0xaf, 0xbe, 0x0b, 0xe9, 0x71, 0xbe, 0x92, 0xa7, 0xbe, 0x3e,
  0x77, 0xf3, 0x81, 0x3e, 0x2f, 0xe4, 0xb4, 0x3e, 0xde, 0xfc, 0x7a, 0x3e,
  0x86, 0xe8, 0x3c, 0xbe, 0x93, 0x55, 0x71, 0xbe, 0xd7, 0x56, 0xa0, 0xbe,
  0xc0, 0xa5, 0xad, 0x3d, 0x55, 0xea, 0x9c, 0xbe, 0x8a, 0xb0, 0x9b, 0x3e,
  0x08, 0xac, 0xc3, 0x3d, 0x44, 0x9e, 0x83, 0xbd, 0xcd, 0x56, 0x38, 0xbe,
  0x40, 0x40, 0xa6, 0xbd, 0x57, 0xd3, 0xa5, 0x3d, 0x32, 0x9f, 0x9d, 0xbd,
  0x49, 0x48, 0xc0, 0x3e, 0x95, 0xec, 0x11, 0x3d, 0xc0, 0xb3, 0x90, 0xbb,
  0x9c, 0x2b, 0x5b, 0x3e, 0x50, 0xfa, 0xac, 0xbc, 0xb9, 0x5b, 0xb8, 0xbe,
  0x52, 0x10, 0x98, 0xbe, 0xd1, 0x2a, 0x30, 0x3d, 0xa2, 0x05, 0x99, 0x3d,
  0xfd, 0xc5, 0xd3, 0xbd, 0xad, 0x24, 0xc1, 0xbd, 0x08, 0xcb, 0x4b, 0x3e,
  0xbf, 0x1f, 0x5d, 0x3e, 0xdc, 0xfa, 0x27, 0xbe, 0x76, 0xfe, 0xff, 0xff,
  0x04, 0x00, 0x00, 0x00, 0x80, 0x00, 0x00, 0x00, 0x1b, 0x93, 0xad, 0xbc,
  0x68, 0x85, 0xa0, 0xbd, 0xfd, 0x38, 0x85, 0xbb, 0x4c, 0xe2, 0x4c, 0xbd,
  0xc9, 0xd1, 0x27, 0x3d, 0xba, 0x34, 0xa7, 0xbc, 0x25, 0x13, 0x31, 0xbd,
  0x00, 0x00, 0x00, 0x00, 0xe4, 0x08, 0x26, 0xbd, 0x67, 0xc2, 0xf7, 0x3d,
  0xd9, 0x25, 0x8e, 0xbd, 0x3b, 0xdd, 0x81, 0xbc, 0x5d, 0x56, 0x2c, 0x3c,
  0x2d, 0x13, 0xaf, 0x3d, 0x00, 0x00, 0x00, 0x00, 0xb3, 0x51, 0xc6, 0xbc,
  0x00, 0x6d, 0xdf, 0xbc, 0x1e, 0x9e, 0x77, 0x3d, 0xed, 0x7e, 0xa2, 0xbb,
  0xa0, 0x0a, 0xaf, 0xbd, 0x96, 0x05, 0xb9, 0x3d, 0x78, 0xb6, 0x48, 0x3d,
  0x43, 0x4d, 0x91, 0x3d, 0x7c, 0xff, 0x0a, 0x3d, 0x63, 0x86, 0x16, 0xbd,
  0xef, 0x17, 0x25, 0x3c, 0x00, 0x00, 0x00, 0x00, 0x00, 0x00, 0x00, 0x00,
  0x3a, 0x43, 0x07, 0xbc, 0x00, 0x00, 0x00, 0x00, 0x5c, 0x76, 0xec, 0xbd,
  0x4b, 0x49, 0x2b, 0xbd, 0x02, 0xff, 0xff, 0xff, 0x04, 0x00, 0x00, 0x00,
  0x40, 0x00, 0x00, 0x00, 0x00, 0x00, 0x00, 0x00, 0x95, 0x36, 0x62, 0x3d,
  0x00, 0x00, 0x00, 0x00, 0xc1, 0x3c, 0x3e, 0xbb, 0xb0, 0x46, 0x76, 0xbd,
  0x00, 0x00, 0x00, 0x00, 0xb5, 0xc9, 0x72, 0xbd, 0x9d, 0x96, 0x15, 0x3a,
  0x4f, 0xd9, 0x93, 0xbc, 0x00, 0x00, 0x00, 0x00, 0xfe, 0xa2, 0x51, 0x3d,
  0xd3, 0x82, 0xa2, 0x3d, 0x28, 0xb7, 0xb7, 0xbc, 0x12, 0x7e, 0xfe, 0xbd,
  0xe0, 0xb6, 0x5c, 0xbc, 0x86, 0x42, 0xc9, 0x3c, 0x4e, 0xff, 0xff, 0xff,
  0x04, 0x00, 0x00, 0x00, 0x10, 0x00, 0x00, 0x00, 0x0c, 0x9c, 0x3c, 0x3d,
  0x49, 0x40, 0x0d, 0xbe, 0x79, 0x04, 0x9e, 0x3d, 0x99, 0xc8, 0x07, 0x3e,
  0x14, 0xfa, 0xff, 0xff, 0x18, 0xfa, 0xff, 0xff, 0x0f, 0x00, 0x00, 0x00,
  0x4d, 0x4c, 0x49, 0x52, 0x20, 0x43, 0x6f, 0x6e, 0x76, 0x65, 0x72, 0x74,
  0x65, 0x64, 0x2e, 0x00, 0x01, 0x00, 0x00, 0x00, 0x14, 0x00, 0x00, 0x00,
  0x00, 0x00, 0x0e, 0x00, 0x18, 0x00, 0x14, 0x00, 0x10, 0x00, 0x0c, 0x00,
  0x08, 0x00, 0x04, 0x00, 0x0e, 0x00, 0x00, 0x00, 0x14, 0x00, 0x00, 0x00,
  0x1c, 0x00, 0x00, 0x00, 0x24, 0x01, 0x00, 0x00, 0x28, 0x01, 0x00, 0x00,
  0x2c, 0x01, 0x00, 0x00, 0x04, 0x00, 0x00, 0x00, 0x6d, 0x61, 0x69, 0x6e,
  0x00, 0x00, 0x00, 0x00, 0x04, 0x00, 0x00, 0x00, 0xcc, 0x00, 0x00, 0x00,
  0x84, 0x00, 0x00, 0x00, 0x50, 0x00, 0x00, 0x00, 0x14, 0x00, 0x00, 0x00,
  0x00, 0x00, 0x0e, 0x00, 0x1a, 0x00, 0x14, 0x00, 0x10, 0x00, 0x0c, 0x00,
  0x0b, 0x00, 0x04, 0x00, 0x0e, 0x00, 0x00, 0x00, 0x1c, 0x00, 0x00, 0x00,
  0x00, 0x00, 0x00, 0x09, 0x1c, 0x00, 0x00, 0x00, 0x20, 0x00, 0x00, 0x00,
  0x01, 0x00, 0x00, 0x00, 0x00, 0x00, 0x06, 0x00, 0x08, 0x00, 0x04, 0x00,
  0x06, 0x00, 0x00, 0x00, 0x00, 0x00, 0x80, 0x3f, 0x01, 0x00, 0x00, 0x00,
  0x0a, 0x00, 0x00, 0x00, 0x01, 0x00, 0x00, 0x00, 0x09, 0x00, 0x00, 0x00,
  0x9a, 0xff, 0xff, 0xff, 0x10, 0x00, 0x00, 0x00, 0x00, 0x00, 0x00, 0x08,
  0x0c, 0x00, 0x00, 0x00, 0x10, 0x00, 0x00, 0x00, 0xdc, 0xfa, 0xff, 0xff,
  0x01, 0x00, 0x00, 0x00, 0x09, 0x00, 0x00, 0x00, 0x03, 0x00, 0x00, 0x00,
  0x08, 0x00, 0x00, 0x00, 0x06, 0x00, 0x00, 0x00, 0x01, 0x00, 0x00, 0x00,
  0xca, 0xff, 0xff, 0xff, 0x10, 0x00, 0x00, 0x00, 0x00, 0x00, 0x00, 0x08,
  0x10, 0x00, 0x00, 0x00, 0x14, 0x00, 0x00, 0x00, 0xba, 0xff, 0xff, 0xff,
  0x00, 0x00, 0x00, 0x01, 0x01, 0x00, 0x00, 0x00, 0x08, 0x00, 0x00, 0x00,
  0x03, 0x00, 0x00, 0x00, 0x07, 0x00, 0x00, 0x00, 0x05, 0x00, 0x00, 0x00,
  0x02, 0x00, 0x00, 0x00, 0x00, 0x00, 0x0e, 0x00, 0x16, 0x00, 0x00, 0x00,
  0x10, 0x00, 0x0c, 0x00, 0x0b, 0x00, 0x04, 0x00, 0x0e, 0x00, 0x00, 0x00,
  0x18, 0x00, 0x00, 0x00, 0x00, 0x00, 0x00, 0x08, 0x18, 0x00, 0x00, 0x00,
  0x1c, 0x00, 0x00, 0x00, 0x00, 0x00, 0x06, 0x00, 0x08, 0x00, 0x07, 0x00,
  0x06, 0x00, 0x00, 0x00, 0x00, 0x00, 0x00, 0x01, 0x01, 0x00, 0x00, 0x00,
  0x07, 0x00, 0x00, 0x00, 0x03, 0x00, 0x00, 0x00, 0x00, 0x00, 0x00, 0x00,
  0x04, 0x00, 0x00, 0x00, 0x03, 0x00, 0x00, 0x00, 0x01, 0x00, 0x00, 0x00,
  0x0a, 0x00, 0x00, 0x00, 0x01, 0x00, 0x00, 0x00, 0x00, 0x00, 0x00, 0x00,
  0x0b, 0x00, 0x00, 0x00, 0x4c, 0x04, 0x00, 0x00, 0xd8, 0x03, 0x00, 0x00,
  0x64, 0x03, 0x00, 0x00, 0x08, 0x03, 0x00, 0x00, 0xb8, 0x02, 0x00, 0x00,
  0x68, 0x02, 0x00, 0x00, 0x18, 0x02, 0x00, 0x00, 0x7c, 0x01, 0x00, 0x00,
  0xe0, 0x00, 0x00, 0x00, 0x60, 0x00, 0x00, 0x00, 0x04, 0x00, 0x00, 0x00,
  0xf6, 0xfb, 0xff, 0xff, 0x00, 0x00, 0x00, 0x01, 0x14, 0x00, 0x00, 0x00,
  0x1c, 0x00, 0x00, 0x00, 0x1c, 0x00, 0x00, 0x00, 0x0b, 0x00, 0x00, 0x00,
  0x34, 0x00, 0x00, 0x00, 0x02, 0x00, 0x00, 0x00, 0xff, 0xff, 0xff, 0xff,
  0x04, 0x00, 0x00, 0x00, 0xe0, 0xfb, 0xff, 0xff, 0x19, 0x00, 0x00, 0x00,
  0x53, 0x74, 0x61, 0x74, 0x65, 0x66, 0x75, 0x6c, 0x50, 0x61, 0x72, 0x74,
  0x69, 0x74, 0x69, 0x6f, 0x6e, 0x65, 0x64, 0x43, 0x61, 0x6c, 0x6c, 0x3a,
  0x30, 0x00, 0x00, 0x00, 0x02, 0x00, 0x00, 0x00, 0x01, 0x00, 0x00, 0x00,
  0x04, 0x00, 0x00, 0x00, 0x4e, 0xfc, 0xff, 0xff, 0x00, 0x00, 0x00, 0x01,
  0x14, 0x00, 0x00, 0x00, 0x1c, 0x00, 0x00, 0x00, 0x1c, 0x00, 0x00, 0x00,
  0x0a, 0x00, 0x00, 0x00, 0x58, 0x00, 0x00, 0x00, 0x02, 0x00, 0x00, 0x00,
  0xff, 0xff, 0xff, 0xff, 0x04, 0x00, 0x00, 0x00, 0x38, 0xfc, 0xff, 0xff,
  0x3e, 0x00, 0x00, 0x00, 0x73, 0x65, 0x71, 0x75, 0x65, 0x6e, 0x74, 0x69,
  0x61, 0x6c, 0x5f, 0x37, 0x32, 0x2f, 0x64, 0x65, 0x6e, 0x73, 0x65, 0x5f,
  0x32, 0x30, 0x30, 0x2f, 0x4d, 0x61, 0x74, 0x4d, 0x75, 0x6c, 0x3b, 0x73,
  0x65, 0x71, 0x75, 0x65, 0x6e, 0x74, 0x69, 0x61, 0x6c, 0x5f, 0x37, 0x32,
  0x2f, 0x64, 0x65, 0x6e, 0x73, 0x65, 0x5f, 0x32, 0x30, 0x30, 0x2f, 0x42,
  0x69, 0x61, 0x73, 0x41, 0x64, 0x64, 0x00, 0x00, 0x02, 0x00, 0x00, 0x00,
  0x01, 0x00, 0x00, 0x00, 0x04, 0x00, 0x00, 0x00, 0xca, 0xfc, 0xff, 0xff,
  0x00, 0x00, 0x00, 0x01, 0x14, 0x00, 0x00, 0x00, 0x1c, 0x00, 0x00, 0x00,
  0x1c, 0x00, 0x00, 0x00, 0x09, 0x00, 0x00, 0x00, 0x74, 0x00, 0x00, 0x00,
  0x02, 0x00, 0x00, 0x00, 0xff, 0xff, 0xff, 0xff, 0x10, 0x00, 0x00, 0x00,
  0xb4, 0xfc, 0xff, 0xff, 0x5b, 0x00, 0x00, 0x00, 0x73, 0x65, 0x71, 0x75,
  0x65, 0x6e, 0x74, 0x69, 0x61, 0x6c, 0x5f, 0x37, 0x32, 0x2f, 0x64, 0x65,
  0x6e, 0x73, 0x65, 0x5f, 0x31, 0x39, 0x39, 0x2f, 0x4d, 0x61, 0x74, 0x4d,
  0x75, 0x6c, 0x3b, 0x73, 0x65, 0x71, 0x75, 0x65, 0x6e, 0x74, 0x69, 0x61,
  0x6c, 0x5f, 0x37, 0x32, 0x2f, 0x64, 0x65, 0x6e, 0x73, 0x65, 0x5f, 0x31,
  0x39, 0x39, 0x2f, 0x52, 0x65, 0x6c, 0x75, 0x3b, 0x73, 0x65, 0x71, 0x75,
  0x65, 0x6e, 0x74, 0x69, 0x61, 0x6c, 0x5f, 0x37, 0x32, 0x2f, 0x64, 0x65,
  0x6e, 0x73, 0x65, 0x5f, 0x31, 0x39, 0x39, 0x2f, 0x42, 0x69, 0x61, 0x73,
  0x41, 0x64, 0x64, 0x00, 0x02, 0x00, 0x00, 0x00, 0x01, 0x00, 0x00, 0x00,
  0x10, 0x00, 0x00, 0x00, 0x62, 0xfd, 0xff, 0xff, 0x00, 0x00, 0x00, 0x01,
  0x14, 0x00, 0x00, 0x00, 0x1c, 0x00, 0x00, 0x00, 0x1c, 0x00, 0x00, 0x00,
  0x08, 0x00, 0x00, 0x00, 0x74, 0x00, 0x00, 0x00, 0x02, 0x00, 0x00, 0x00,
  0xff, 0xff, 0xff, 0xff, 0x20, 0x00, 0x00, 0x00, 0x4c, 0xfd, 0xff, 0xff,
  0x5b, 0x00, 0x00, 0x00, 0x73, 0x65, 0x71, 0x75, 0x65, 0x6e, 0x74, 0x69,
  0x61, 0x6c, 0x5f, 0x37, 0x32, 0x2f, 0x64, 0x65, 0x6e, 0x73, 0x65, 0x5f,
  0x31, 0x39, 0x38, 0x2f, 0x4d, 0x61, 0x74, 0x4d, 0x75, 0x6c, 0x3b, 0x73,
  0x65, 0x71, 0x75, 0x65, 0x6e, 0x74, 0x69, 0x61, 0x6c, 0x5f, 0x37, 0x32,
  0x2f, 0x64, 0x65, 0x6e, 0x73, 0x65, 0x5f, 0x31, 0x39, 0x38, 0x2f, 0x52,
  0x65, 0x6c, 0x75, 0x3b, 0x73, 0x65, 0x71, 0x75, 0x65, 0x6e, 0x74, 0x69,
  0x61, 0x6c, 0x5f, 0x37, 0x32, 0x2f, 0x64, 0x65, 0x6e, 0x73, 0x65, 0x5f,
  0x31, 0x39, 0x38, 0x2f, 0x42, 0x69, 0x61, 0x73, 0x41, 0x64, 0x64, 0x00,
  0x02, 0x00, 0x00, 0x00, 0x01, 0x00, 0x00, 0x00, 0x20, 0x00, 0x00, 0x00,
  0x6a, 0xfe, 0xff, 0xff, 0x00, 0x00, 0x00, 0x01, 0x10, 0x00, 0x00, 0x00,
  0x10, 0x00, 0x00, 0x00, 0x07, 0x00, 0x00, 0x00, 0x2c, 0x00, 0x00, 0x00,
  0xd4, 0xfd, 0xff, 0xff, 0x1e, 0x00, 0x00, 0x00, 0x73, 0x65, 0x71, 0x75,
  0x65, 0x6e, 0x74, 0x69, 0x61, 0x6c, 0x5f, 0x37, 0x32, 0x2f, 0x64, 0x65,
  0x6e, 0x73, 0x65, 0x5f, 0x32, 0x30, 0x30, 0x2f, 0x4d, 0x61, 0x74, 0x4d,
  0x75, 0x6c, 0x00, 0x00, 0x02, 0x00, 0x00, 0x00, 0x04, 0x00, 0x00, 0x00,
  0x10, 0x00, 0x00, 0x00, 0xb6, 0xfe, 0xff, 0xff, 0x00, 0x00, 0x00, 0x01,
  0x10, 0x00, 0x00, 0x00, 0x10, 0x00, 0x00, 0x00, 0x06, 0x00, 0x00, 0x00,
  0x2c, 0x00, 0x00, 0x00, 0x20, 0xfe, 0xff, 0xff, 0x1e, 0x00, 0x00, 0x00,
  0x73, 0x65, 0x71, 0x75, 0x65, 0x6e, 0x74, 0x69, 0x61, 0x6c, 0x5f, 0x37,
  0x32, 0x2f, 0x64, 0x65, 0x6e, 0x73, 0x65, 0x5f, 0x31, 0x39, 0x39, 0x2f,
  0x4d, 0x61, 0x74, 0x4d, 0x75, 0x6c, 0x00, 0x00, 0x02, 0x00, 0x00, 0x00,
  0x10, 0x00, 0x00, 0x00, 0x20, 0x00, 0x00, 0x00, 0x02, 0xff, 0xff, 0xff,
  0x00, 0x00, 0x00, 0x01, 0x10, 0x00, 0x00, 0x00, 0x10, 0x00, 0x00, 0x00,
  0x05, 0x00, 0x00, 0x00, 0x2c, 0x00, 0x00, 0x00, 0x6c, 0xfe, 0xff, 0xff,
  0x1e, 0x00, 0x00, 0x00, 0x73, 0x65, 0x71, 0x75, 0x65, 0x6e, 0x74, 0x69,
  0x61, 0x6c, 0x5f, 0x37, 0x32, 0x2f, 0x64, 0x65, 0x6e, 0x73, 0x65, 0x5f,
  0x31, 0x39, 0x38, 0x2f, 0x4d, 0x61, 0x74, 0x4d, 0x75, 0x6c, 0x00, 0x00,
  0x02, 0x00, 0x00, 0x00, 0x20, 0x00, 0x00, 0x00, 0x04, 0x00, 0x00, 0x00,
  0x4e, 0xff, 0xff, 0xff, 0x00, 0x00, 0x00, 0x01, 0x10, 0x00, 0x00, 0x00,
  0x10, 0x00, 0x00, 0x00, 0x04, 0x00, 0x00, 0x00, 0x3c, 0x00, 0x00, 0x00,
  0xb8, 0xfe, 0xff, 0xff, 0x2e, 0x00, 0x00, 0x00, 0x73, 0x65, 0x71, 0x75,
  0x65, 0x6e, 0x74, 0x69, 0x61, 0x6c, 0x5f, 0x37, 0x32, 0x2f, 0x64, 0x65,
  0x6e, 0x73, 0x65, 0x5f, 0x31, 0x39, 0x38, 0x2f, 0x42, 0x69, 0x61, 0x73,
  0x41, 0x64, 0x64, 0x2f, 0x52, 0x65, 0x61, 0x64, 0x56, 0x61, 0x72, 0x69,
  0x61, 0x62, 0x6c, 0x65, 0x4f, 0x70, 0x00, 0x00, 0x01, 0x00, 0x00, 0x00,
  0x20, 0x00, 0x00, 0x00, 0xa6, 0xff, 0xff, 0xff, 0x00, 0x00, 0x00, 0x01,
  0x10, 0x00, 0x00, 0x00, 0x10, 0x00, 0x00, 0x00, 0x03, 0x00, 0x00, 0x00,
  0x3c, 0x00, 0x00, 0x00, 0x10, 0xff, 0xff, 0xff, 0x2e, 0x00, 0x00, 0x00,
  0x73, 0x65, 0x71, 0x75, 0x65, 0x6e, 0x74, 0x69, 0x61, 0x6c, 0x5f, 0x37,
  0x32, 0x2f, 0x64, 0x65, 0x6e, 0x73, 0x65, 0x5f, 0x31, 0x39, 0x39, 0x2f,
  0x42, 0x69, 0x61, 0x73, 0x41, 0x64, 0x64, 0x2f, 0x52, 0x65, 0x61, 0x64,
  0x56, 0x61, 0x72, 0x69, 0x61, 0x62, 0x6c, 0x65, 0x4f, 0x70, 0x00, 0x00,
  0x01, 0x00, 0x00, 0x00, 0x10, 0x00, 0x00, 0x00, 0x00, 0x00, 0x16, 0x00,
  0x18, 0x00, 0x14, 0x00, 0x00, 0x00, 0x10, 0x00, 0x0c, 0x00, 0x08, 0x00,
  0x00, 0x00, 0x00, 0x00, 0x00, 0x00, 0x07, 0x00, 0x16, 0x00, 0x00, 0x00,
  0x00, 0x00, 0x00, 0x01, 0x10, 0x00, 0x00, 0x00, 0x10, 0x00, 0x00, 0x00,
  0x02, 0x00, 0x00, 0x00, 0x3c, 0x00, 0x00, 0x00, 0x80, 0xff, 0xff, 0xff,
  0x2e, 0x00, 0x00, 0x00, 0x73, 0x65, 0x71, 0x75, 0x65, 0x6e, 0x74, 0x69,
  0x61, 0x6c, 0x5f, 0x37, 0x32, 0x2f, 0x64, 0x65, 0x6e, 0x73, 0x65, 0x5f,
  0x32, 0x30, 0x30, 0x2f, 0x42, 0x69, 0x61, 0x73, 0x41, 0x64, 0x64, 0x2f,
  0x52, 0x65, 0x61, 0x64, 0x56, 0x61, 0x72, 0x69, 0x61, 0x62, 0x6c, 0x65,
  0x4f, 0x70, 0x00, 0x00, 0x01, 0x00, 0x00, 0x00, 0x04, 0x00, 0x00, 0x00,
  0x00, 0x00, 0x16, 0x00, 0x1c, 0x00, 0x18, 0x00, 0x00, 0x00, 0x14, 0x00,
  0x10, 0x00, 0x0c, 0x00, 0x00, 0x00, 0x00, 0x00, 0x08, 0x00, 0x07, 0x00,
  0x16, 0x00, 0x00, 0x00, 0x00, 0x00, 0x00, 0x01, 0x14, 0x00, 0x00, 0x00,
  0x20, 0x00, 0x00, 0x00, 0x20, 0x00, 0x00, 0x00, 0x01, 0x00, 0x00, 0x00,
  0x40, 0x00, 0x00, 0x00, 0x02, 0x00, 0x00, 0x00, 0xff, 0xff, 0xff, 0xff,
  0x04, 0x00, 0x00, 0x00, 0x04, 0x00, 0x04, 0x00, 0x04, 0x00, 0x00, 0x00,
  0x21, 0x00, 0x00, 0x00, 0x73, 0x65, 0x72, 0x76, 0x69, 0x6e, 0x67, 0x5f,
  0x64, 0x65, 0x66, 0x61, 0x75, 0x6c, 0x74, 0x5f, 0x64, 0x65, 0x6e, 0x73,
  0x65, 0x5f, 0x31, 0x39, 0x38, 0x5f, 0x69, 0x6e, 0x70, 0x75, 0x74, 0x3a,
  0x30, 0x00, 0x00, 0x00, 0x02, 0x00, 0x00, 0x00, 0x01, 0x00, 0x00, 0x00,
  0x04, 0x00, 0x00, 0x00, 0x02, 0x00, 0x00, 0x00, 0x20, 0x00, 0x00, 0x00,
  0x04, 0x00, 0x00, 0x00, 0xf4, 0xff, 0xff, 0xff, 0x19, 0x00, 0x00, 0x00,
  0x00, 0x00, 0x00, 0x19, 0x0c, 0x00, 0x0c, 0x00, 0x0b, 0x00, 0x00, 0x00,
  0x00, 0x00, 0x04, 0x00, 0x0c, 0x00, 0x00, 0x00, 0x09, 0x00, 0x00, 0x00,
  0x00, 0x00, 0x00, 0x09
};

unsigned int modelo_tflite_len = sizeof(modelo_tflite);