const unsigned char modelo_tflite[] = {
  0x1c, 0x00, 0x00, 0x00, 0x54, 0x46, 0x4c, 0x33, 0x14, 0x00, 0x20, 0x00,
  0x1c, 0x00, 0x18, 0x00, 0x14, 0x00, 0x10, 0x00, 0x0c, 0x00, 0x00, 0x00,
  0x08, 0x00, 0x04, 0x00, 0x14, 0x00, 0x00, 0x00, 0x1c, 0x00, 0x00, 0x00,
  0x94, 0x00, 0x00, 0x00, 0xec, 0x00, 0x00, 0x00, 0x50, 0x0e, 0x00, 0x00,
  0x60, 0x0e, 0x00, 0x00, 0x38, 0x14, 0x00, 0x00, 0x03, 0x00, 0x00, 0x00,
  0x01, 0x00, 0x00, 0x00, 0x10, 0x00, 0x00, 0x00, 0x00, 0x00, 0x0a, 0x00,
  0x10, 0x00, 0x0c, 0x00, 0x08, 0x00, 0x04, 0x00, 0x0a, 0x00, 0x00, 0x00,
  0x0c, 0x00, 0x00, 0x00, 0x1c, 0x00, 0x00, 0x00, 0x38, 0x00, 0x00, 0x00,
  0x0f, 0x00, 0x00, 0x00, 0x73, 0x65, 0x72, 0x76, 0x69, 0x6e, 0x67, 0x5f,
  0x64, 0x65, 0x66, 0x61, 0x75, 0x6c, 0x74, 0x00, 0x01, 0x00, 0x00, 0x00,
  0x04, 0x00, 0x00, 0x00, 0x94, 0xff, 0xff, 0xff, 0x0a, 0x00, 0x00, 0x00,
  0x04, 0x00, 0x00, 0x00, 0x07, 0x00, 0x00, 0x00, 0x64, 0x65, 0x6e, 0x73,
  0x65, 0x5f, 0x38, 0x00, 0x01, 0x00, 0x00, 0x00, 0x04, 0x00, 0x00, 0x00,
  0x92, 0xf1, 0xff, 0xff, 0x04, 0x00, 0x00, 0x00, 0x0d, 0x00, 0x00, 0x00,
  0x64, 0x65, 0x6e, 0x73, 0x65, 0x5f, 0x36, 0x5f, 0x69, 0x6e, 0x70, 0x75,
  0x74, 0x00, 0x00, 0x00, 0x02, 0x00, 0x00, 0x00, 0x34, 0x00, 0x00, 0x00,
  0x04, 0x00, 0x00, 0x00, 0xdc, 0xff, 0xff, 0xff, 0x0d, 0x00, 0x00, 0x00,
  0x04, 0x00, 0x00, 0x00, 0x13, 0x00, 0x00, 0x00, 0x43, 0x4f, 0x4e, 0x56,
  0x45, 0x52, 0x53, 0x49, 0x4f, 0x4e, 0x5f, 0x4d, 0x45, 0x54, 0x41, 0x44,
  0x41, 0x54, 0x41, 0x00, 0x08, 0x00, 0x0c, 0x00, 0x08, 0x00, 0x04, 0x00,
  0x08, 0x00, 0x00, 0x00, 0x0c, 0x00, 0x00, 0x00, 0x04, 0x00, 0x00, 0x00,
  0x13, 0x00, 0x00, 0x00, 0x6d, 0x69, 0x6e, 0x5f, 0x72, 0x75, 0x6e, 0x74,
  0x69, 0x6d, 0x65, 0x5f, 0x76, 0x65, 0x72, 0x73, 0x69, 0x6f, 0x6e, 0x00,
  0x0e, 0x00, 0x00, 0x00, 0x60, 0x0d, 0x00, 0x00, 0x58, 0x0d, 0x00, 0x00,
  0x38, 0x0d, 0x00, 0x00, 0xe8, 0x0c, 0x00, 0x00, 0x58, 0x0c, 0x00, 0x00,
  0xc8, 0x09, 0x00, 0x00, 0xb8, 0x01, 0x00, 0x00, 0xa8, 0x00, 0x00, 0x00,
  0xa0, 0x00, 0x00, 0x00, 0x98, 0x00, 0x00, 0x00, 0x90, 0x00, 0x00, 0x00,
  0x88, 0x00, 0x00, 0x00, 0x68, 0x00, 0x00, 0x00, 0x04, 0x00, 0x00, 0x00,
  0x46, 0xf2, 0xff, 0xff, 0x04, 0x00, 0x00, 0x00, 0x54, 0x00, 0x00, 0x00,
  0x0c, 0x00, 0x00, 0x00, 0x08, 0x00, 0x0e, 0x00, 0x08, 0x00, 0x04, 0x00,
  0x08, 0x00, 0x00, 0x00, 0x10, 0x00, 0x00, 0x00, 0x24, 0x00, 0x00, 0x00,
  0x00, 0x00, 0x06, 0x00, 0x08, 0x00, 0x04, 0x00, 0x06, 0x00, 0x00, 0x00,
  0x04, 0x00, 0x00, 0x00, 0x00, 0x00, 0x00, 0x00, 0x00, 0x00, 0x0a, 0x00,
  0x10, 0x00, 0x0c, 0x00, 0x08, 0x00, 0x04, 0x00, 0x0a, 0x00, 0x00, 0x00,
  0x02, 0x00, 0x00, 0x00, 0x02, 0x00, 0x00, 0x00, 0x04, 0x00, 0x00, 0x00,
  0x06, 0x00, 0x00, 0x00, 0x32, 0x2e, 0x31, 0x35, 0x2e, 0x30, 0x00, 0x00,
  0xa6, 0xf2, 0xff, 0xff, 0x04, 0x00, 0x00, 0x00, 0x10, 0x00, 0x00, 0x00,
  0x31, 0x2e, 0x35, 0x2e, 0x30, 0x00, 0x00, 0x00, 0x00, 0x00, 0x00, 0x00,
  0x00, 0x00, 0x00, 0x00, 0x98, 0xed, 0xff, 0xff, 0x9c, 0xed, 0xff, 0xff,
  0xa0, 0xed, 0xff, 0xff, 0xa4, 0xed, 0xff, 0xff, 0xd2, 0xf2, 0xff, 0xff,
  0x04, 0x00, 0x00, 0x00, 0x00, 0x01, 0x00, 0x00, 0x7e, 0xee, 0xc1, 0x3c,
  0xe1, 0xbb, 0xe2, 0x3e, 0x67, 0x0a, 0xba, 0xbe, 0xd0, 0x5e, 0xf9, 0xbe,
  0x61, 0x2e, 0xc5, 0xbe, 0x79, 0x2a, 0x8e, 0xbe, 0x8b, 0x48, 0xe7, 0x3e,
  0xba, 0xce, 0xb4, 0x3e, 0xf4, 0x0c, 0x7e, 0x3e, 0xfc, 0xc7, 0x8e, 0x3d,
  0x25, 0x84, 0xfc, 0xbe, 0xd7, 0x4d, 0x92, 0xbe, 0x52, 0x7a, 0x0d, 0xbf,
  0x45, 0x4e, 0xa6, 0xbd, 0xda, 0x66, 0xa5, 0x3e, 0xf1, 0x5d, 0xd6, 0xbd,
  0xb7, 0xf7, 0xf5, 0x3e, 0x92, 0xef, 0xae, 0xbe, 0x89, 0x4c, 0x98, 0x3e,
  0xf6, 0x6c, 0x38, 0xbf, 0x14, 0x40, 0xc8, 0x3e, 0x98, 0x7e, 0x24, 0x3e,
  0x1a, 0x79, 0xcf, 0x3e, 0x7b, 0x37, 0xc2, 0x3e, 0xa4, 0xa2, 0x3d, 0xbe,
  0xdc, 0x0d, 0xcf, 0x3e, 0xaf, 0xe2, 0xe3, 0xbe, 0x09, 0x1e, 0xd9, 0x3e,
  0xa6, 0x23, 0x0f, 0xbf, 0x69, 0x94, 0xeb, 0x3e, 0xdd, 0xed, 0xcc, 0xbe,
  0x3c, 0x75, 0x9e, 0x3e, 0x19, 0x49, 0xe5, 0x3e, 0x62, 0x5e, 0xef, 0xbb,
  0xa3, 0xc0, 0xa2, 0x3d, 0x65, 0x29, 0xdb, 0x3e, 0xf0, 0xce, 0x4b, 0xbe,
  0x8d, 0xef, 0x96, 0xbe, 0xe1, 0x0b, 0x15, 0xbe, 0xee, 0xe6, 0x08, 0x3e,
  0xf8, 0x03, 0xfe, 0xbe, 0x7b, 0x89, 0x96, 0xbe, 0x2e, 0xe9, 0x9b, 0xbd,
  0x5e, 0x04, 0xcc, 0xbc, 0x54, 0x9f, 0x89, 0xbe, 0x63, 0xf6, 0x43, 0xbe,
  0x1b, 0xf8, 0x7d, 0xbe, 0x50, 0x67, 0xaf, 0xbe, 0x06, 0x97, 0xab, 0x3e,
  0x4c, 0x77, 0x9e, 0xbe, 0xe9, 0xce, 0x5a, 0xbe, 0x95, 0xeb, 0xbf, 0xbe,
  0xda, 0x2f, 0x42, 0xbb, 0x30, 0x24, 0xe6, 0xbe, 0x66, 0x5c, 0xd6, 0x3e,
  0x3b, 0x41, 0xca, 0xbe, 0x00, 0xf2, 0x46, 0x3d, 0xf1, 0x6b, 0xfb, 0x3e,
  0x46, 0xff, 0x8f, 0x3e, 0x4e, 0xa8, 0xfc, 0x3e, 0xf6, 0xf6, 0xc7, 0x3e,
  0xc0, 0x84, 0x41, 0xbe, 0x7e, 0xb4, 0xcd, 0xbe, 0x03, 0x22, 0x81, 0x3e,
  0xde, 0xf3, 0xff, 0xff, 0x04, 0x00, 0x00, 0x00, 0x00, 0x08, 0x00, 0x00,
  0x7a, 0xb8, 0xf5, 0x3d, 0xe3, 0xb3, 0xa1, 0xbe, 0x77, 0x10, 0xc9, 0x3e,
  0x60, 0x64, 0x96, 0xbe, 0x00, 0x74, 0xff, 0xbd, 0x4d, 0x6f, 0xa4, 0x3e,
  0xfa, 0x62, 0x81, 0x3e, 0x66, 0xb1, 0x91, 0xbe, 0xfe, 0xaa, 0x72, 0x3d,
  0x92, 0xbd, 0x56, 0x3e, 0x5b, 0x42, 0x90, 0x3e, 0x5d, 0x88, 0xba, 0x3c,
  0x1f, 0x09, 0xc3, 0xbe, 0x21, 0x76, 0xa4, 0x3d, 0x1d, 0x04, 0x80, 0x3e,
  0x76, 0x22, 0xa2, 0xbe, 0x3a, 0x35, 0xac, 0x3e, 0xa0, 0x8f, 0x47, 0xbe,
  0x09, 0x4f, 0xdb, 0xbc, 0x41, 0x11, 0x03, 0xbe, 0xc0, 0x9b, 0xe0, 0x3d,
  0xda, 0xb6, 0x92, 0x3d, 0xaf, 0x43, 0x78, 0xbe, 0x07, 0x6c, 0xa6, 0xbe,
  0x6f, 0xa4, 0x28, 0xbe, 0xcf, 0x20, 0x90, 0x3d, 0xa8, 0xda, 0xfe, 0xbd,
  0x8f, 0xc5, 0x4c, 0x3e, 0x5f, 0xbe, 0x0e, 0xbe, 0xb0, 0x77, 0xa8, 0xbe,
  0x1f, 0x44, 0x4f, 0xbe, 0xf4, 0x72, 0xae, 0xbe, 0xc1, 0x99, 0x85, 0x3d,
  0xc3, 0x44, 0xa9, 0x3e, 0xa9, 0x7a, 0xc6, 0x3e, 0x4a, 0xf1, 0x18, 0x3e,
  0x02, 0x4a, 0x74, 0x3b, 0x8d, 0x25, 0x1a, 0xbe, 0x63, 0x44, 0xa8, 0xbe,
  0x01, 0xfd, 0xa2, 0x3e, 0xf0, 0xac, 0x6b, 0x3e, 0x80, 0xef, 0xbe, 0xbd,
  0xdd, 0xaf, 0x47, 0xbe, 0xeb, 0x20, 0x88, 0x3e, 0xc0, 0x4b, 0x1a, 0x3c,
  0xca, 0x2e, 0x26, 0xbe, 0xf6, 0xd3, 0x11, 0xbe, 0x30, 0xa6, 0xe1, 0xbc,
  0x99, 0x5d, 0x92, 0xbe, 0xf8, 0x6c, 0x18, 0xbd, 0xe7, 0x87, 0x9b, 0x3e,
  0xc4, 0xe2, 0xc7, 0x3d, 0x67, 0xd5, 0xbb, 0xbe, 0x99, 0x85, 0x8a, 0xbe,
  0xd4, 0x97, 0x8b, 0x3e, 0x76, 0xad, 0x0f, 0x3d, 0xeb, 0xf5, 0x31, 0xbe,
  0xf1, 0x96, 0x5f, 0xbd, 0x9c, 0x6c, 0x76, 0x3e, 0xc1, 0x19, 0x3f, 0xbe,
  0x4c, 0x5f, 0xa6, 0xbd, 0xcb, 0x80, 0x3c, 0xbe, 0x66, 0x8d, 0x2e, 0x3e,
  0xc6, 0xd3, 0xbc, 0xbe, 0x14, 0xdc, 0xce, 0xbc, 0x6c, 0x0d, 0xd1, 0xbd,
  0x4c, 0xa0, 0x95, 0x3e, 0xd0, 0x75, 0xe9, 0x3d, 0xdb, 0x52, 0x53, 0x3d,
  0xf5, 0x3d, 0x0a, 0xbe, 0x82, 0x6c, 0x54, 0xbe, 0xfe, 0x3d, 0x7c, 0x3e,
  0x8a, 0x34, 0x29, 0xbe, 0xac, 0xff, 0xea, 0x3d, 0xce, 0xc7, 0x5f, 0x3c,
  0xc0, 0x2b, 0x43, 0xbe, 0xd3, 0x3f, 0x56, 0xbe, 0xc0, 0xea, 0x6e, 0xbe,
  0xcd, 0xd1, 0xa7, 0x3e, 0xa7, 0x15, 0xb1, 0x3e, 0x8b, 0xf8, 0xcd, 0x3e,
  0x0e, 0x01, 0x3e, 0x3e, 0xdd, 0x77, 0x4c, 0x3e, 0x46, 0x8c, 0x32, 0xbd,
  0x2c, 0x29, 0xa9, 0xbd, 0x7b, 0xf9, 0x96, 0x3e, 0x89, 0x5f, 0x2e, 0x3d,
  0x54, 0x52, 0x84, 0x3e, 0x2c, 0xcc, 0x0b, 0xbf, 0xd3, 0xed, 0x45, 0xbe,
  0x59, 0x6b, 0x2c, 0x3d, 0x80, 0xcf, 0xac, 0xbd, 0xf6, 0x40, 0x21, 0xbe,
  0xe6, 0x97, 0x6f, 0x3e, 0x4e, 0x9a, 0xdc, 0x3d, 0xea, 0x6d, 0x17, 0x3e,
  0x4c, 0xcf, 0x11, 0xbf, 0x27, 0x51, 0x97, 0xbe, 0x7a, 0xd0, 0x1a, 0x3c,
  0xaa, 0x45, 0x99, 0xbe, 0x66, 0x0d, 0x79, 0x3e, 0x50, 0x71, 0x50, 0xbe,
  0x91, 0x8c, 0x9a, 0xbe, 0xde, 0x07, 0xd7, 0xbd, 0xd6, 0x76, 0x67, 0xbe,
  0xc2, 0x2e, 0xa0, 0xbe, 0xf8, 0x97, 0x9a, 0xbd, 0x0b, 0x09, 0x94, 0x3e,
  0x40, 0x5e, 0xac, 0xbb, 0xe8, 0x31, 0x58, 0x3e, 0xd3, 0xa4, 0x25, 0x3e,
  0xd2, 0xc8, 0x86, 0xbe, 0x0a, 0xe3, 0x92, 0x3e, 0x07, 0xfc, 0x98, 0x3e,
  0x6d, 0x73, 0x29, 0xbe, 0x96, 0x8b, 0x7c, 0xbe, 0xae, 0x1d, 0xda, 0xbd,
  0x6f, 0xac, 0xa3, 0xbd, 0x2a, 0x0f, 0x70, 0xbe, 0x69, 0xf7, 0x0c, 0x3e,
  0x45, 0x1d, 0x17, 0x3e, 0xe7, 0xe4, 0xca, 0xbc, 0xb8, 0x76, 0x9e, 0xbe,
  0x53, 0x46, 0x60, 0x3e, 0x6a, 0xe6, 0x1a, 0x3e, 0xb6, 0xaa, 0x6f, 0x3e,
  0xb0, 0x7b, 0x2b, 0x3e, 0xb6, 0xb7, 0xc2, 0x3e, 0xdf, 0x6c, 0x5b, 0x3e,
  0x30, 0x3a, 0x87, 0x3c, 0x94, 0xee, 0x96, 0x3e, 0x31, 0x68, 0xc9, 0x39,
  0x2b, 0x04, 0x9f, 0x3e, 0x14, 0x6b, 0x47, 0xbe, 0x2f, 0x0a, 0x40, 0xbe,
  0x46, 0x10, 0x1a, 0xbe, 0x31, 0x80, 0x81, 0x3d, 0xec, 0x66, 0xd9, 0x3d,
  0x6f, 0x4c, 0xa2, 0xbe, 0x80, 0x96, 0x97, 0xbe, 0x83, 0x81, 0x94, 0x3e,
  0x50, 0xad, 0xcb, 0xbb, 0x9e, 0x73, 0xb3, 0x3d, 0xc0, 0x85, 0xcb, 0x3b,
  0xaa, 0x74, 0x38, 0x3c, 0x7c, 0xd9, 0xc0, 0x3d, 0x53, 0x1d, 0x30, 0x3e,
  0x2f, 0x3c, 0x0e, 0x3e, 0xa7, 0x14, 0x8f, 0x3c, 0xfc, 0x5d, 0x07, 0x3e,
  0xd5, 0x1e, 0x87, 0xbe, 0xc6, 0x9c, 0x35, 0x3c, 0xa8, 0xdc, 0xd0, 0xbe,
  0xf4, 0x0b, 0xcc, 0x3d, 0xf5, 0x51, 0xd2, 0xbc, 0x4b, 0x55, 0x83, 0xbe,
  0xac, 0x39, 0xd7, 0x3d, 0xbc, 0xbe, 0xa2, 0xbe, 0xe5, 0x00, 0x8e, 0x3d,
  0x6a, 0xa7, 0x80, 0x3e, 0x28, 0xe9, 0x5f, 0x3d, 0xfe, 0x95, 0x75, 0xbe,
  0x0c, 0x5e, 0xb5, 0x3d, 0x3c, 0xe5, 0x1c, 0xbe, 0x92, 0x9e, 0x1b, 0xbe,
  0xc5, 0x99, 0xa5, 0xbe, 0x20, 0x12, 0x27, 0xbe, 0xf7, 0x22, 0x9f, 0x3e,
  0x03, 0xf4, 0x93, 0x3e, 0x56, 0xd6, 0x61, 0x3e, 0x9e, 0xcc, 0xa9, 0xbe,
  0x20, 0x9c, 0x88, 0xbd, 0x86, 0x37, 0x04, 0x3e, 0x86, 0x90, 0xab, 0xbe,
  0x15, 0xaf, 0x01, 0xbe, 0xa0, 0x69, 0xab, 0xbc, 0xaa, 0x1f, 0x23, 0x3e,
  0x64, 0x36, 0x40, 0xbe, 0x86, 0xaa, 0x2b, 0x3e, 0xa2, 0x15, 0xa2, 0xbe,
  0x94, 0x42, 0x46, 0xbe, 0x0c, 0x39, 0x08, 0x3e, 0x3f, 0xb9, 0xb3, 0x3e,
  0x9a, 0xb9, 0x2a, 0x3e, 0xb7, 0xe3, 0xae, 0xbe, 0xc0, 0xc0, 0x68, 0x3c,
  0x6a, 0x9a, 0x52, 0x3e, 0x3c, 0x82, 0xd2, 0x3d, 0x42, 0x2d, 0x34, 0xbe,
  0x9c, 0xc0, 0x7f, 0xbe, 0x5a, 0xcb, 0x84, 0xbe, 0x70, 0x13, 0xf6, 0x3d,
  0xde, 0xfb, 0x99, 0xbe, 0xb0, 0x0e, 0xad, 0x3c, 0x65, 0xc3, 0x1d, 0xbe,
  0xe4, 0x63, 0x6d, 0xbc, 0xca, 0xbd, 0x80, 0xbe, 0x96, 0x85, 0x1d, 0x3e,
  0x57, 0xf7, 0x22, 0x3e, 0x8e, 0xfb, 0x13, 0x3e, 0xdd, 0x82, 0x83, 0xbe,
  0x8d, 0xd2, 0x85, 0x3e, 0x8c, 0xee, 0x6c, 0xbe, 0xc6, 0xcb, 0x4c, 0xbe,
  0x0f, 0x06, 0x5b, 0x3e, 0x51, 0xd6, 0x8d, 0x3d, 0x47, 0xbd, 0x32, 0x3e,
  0x7b, 0x4c, 0x6b, 0xbe, 0xb2, 0x3b, 0xb4, 0xbe, 0xc8, 0xa2, 0xcb, 0x3d,
  0x0d, 0x93, 0x2a, 0x3e, 0x10, 0xe5, 0xed, 0x3d, 0x65, 0x0f, 0xfa, 0x3d,
  0x92, 0xc5, 0x86, 0xbc, 0x5c, 0x69, 0xc5, 0xbe, 0x61, 0x64, 0x1f, 0x3e,
  0x53, 0x7a, 0x90, 0xbe, 0xa4, 0xf6, 0x5a, 0x3e, 0x07, 0xc7, 0x40, 0x3d,
  0x4d, 0x1f, 0x89, 0xbe, 0xb8, 0xfd, 0x8b, 0xbd, 0x10, 0x56, 0x81, 0x3e,
  0x58, 0xfa, 0x84, 0x3e, 0xff, 0x8f, 0x9c, 0x3d, 0x6a, 0xee, 0x63, 0xbd,
  0x32, 0xf2, 0x08, 0x3e, 0x5c, 0x05, 0x5f, 0xbe, 0x2a, 0x3e, 0x93, 0x3d,
  0x52, 0x7a, 0x4a, 0x3d, 0x91, 0x48, 0x7b, 0x3e, 0xca, 0x84, 0x5e, 0xbe,
  0x09, 0x8f, 0x86, 0x3e, 0xea, 0x07, 0xd6, 0x3d, 0x40, 0x33, 0xf7, 0xbc,
  0x9b, 0x7e, 0xb9, 0x3e, 0x84, 0x1c, 0x8d, 0x3c, 0x13, 0x14, 0x66, 0x3e,
  0xae, 0xb3, 0x15, 0xbe, 0xe5, 0x68, 0xbb, 0xbd, 0x0c, 0x18, 0xb3, 0xbd,
  0x18, 0x78, 0x54, 0xbe, 0x84, 0xbc, 0xcc, 0x3d, 0x8f, 0x96, 0x16, 0xbe,
  0x11, 0xff, 0x95, 0x3e, 0xee, 0x67, 0x97, 0x3e, 0x48, 0x36, 0xa4, 0x3d,
  0x0b, 0x50, 0x75, 0x3e, 0x6d, 0xd0, 0x9a, 0xbd, 0xa4, 0xd6, 0x36, 0x3e,
  0x3b, 0xb3, 0xaa, 0x3c, 0x83, 0x22, 0xb0, 0x3b, 0x59, 0x24, 0x28, 0x3e,
  0xef, 0xfd, 0x88, 0x3e, 0x06, 0xf2, 0x4b, 0xbd, 0xf1, 0x8d, 0x06, 0x3f,
  0xea, 0xea, 0x87, 0xbd, 0xb8, 0xc7, 0xa7, 0xbe, 0xec, 0x24, 0xc9, 0xbd,
  0xcc, 0xe4, 0xc0, 0xbd, 0x40, 0x71, 0x26, 0x3c, 0xb8, 0xb5, 0x47, 0xbe,
  0x61, 0x1a, 0x94, 0xbe, 0x50, 0xac, 0x26, 0xbd, 0x11, 0x11, 0x81, 0xbe,
  0x89, 0x96, 0xa9, 0x3e, 0x40, 0x5c, 0x7d, 0x3d, 0x00, 0x8c, 0x0f, 0x3d,
  0xbe, 0x0b, 0x40, 0x3e, 0xf2, 0x70, 0x63, 0x3e, 0xc8, 0xff, 0x36, 0xbd,
  0xc2, 0x59, 0xb1, 0xbe, 0x14, 0x42, 0x96, 0x3d, 0x40, 0xd8, 0x23, 0x3d,
  0x6b, 0x35, 0x09, 0xbe, 0x11, 0x61, 0x1d, 0xbe, 0x52, 0x1b, 0x7a, 0x3e,
  0xaa, 0xfc, 0x27, 0xbe, 0x78, 0x6f, 0x8d, 0xbe, 0x90, 0x56, 0xd2, 0xbc,
  0x7b, 0x85, 0xaa, 0xbe, 0xa6, 0xdb, 0xa8, 0xbe, 0xd4, 0xeb, 0x7b, 0xbe,
  0x41, 0x38, 0x8e, 0x3e, 0xc8, 0x6e, 0x7b, 0xbe, 0x2a, 0x25, 0x76, 0x3e,
  0xc6, 0x91, 0x35, 0x3e, 0xf6, 0xac, 0x92, 0xbe, 0xb8, 0x9d, 0x4e, 0xbd,
  0x7f, 0x70, 0x68, 0xbe, 0x18, 0x7e, 0x7f, 0xbe, 0x6f, 0x92, 0xd3, 0xbd,
  0x60, 0x97, 0x47, 0xbd, 0x04, 0xd5, 0x7f, 0xbe, 0xf9, 0xd0, 0x48, 0x3e,
  0x5e, 0xa1, 0x9e, 0x3d, 0x40, 0x6f, 0xac, 0x3c, 0xc0, 0x69, 0x9d, 0xbe,
  0x80, 0xcb, 0xed, 0xbc, 0x5a, 0x30, 0xf4, 0xbd, 0x97, 0xa6, 0x5a, 0x3e,
  0x73, 0x31, 0x4b, 0xbe, 0xa0, 0xac, 0x8b, 0x3e, 0xed, 0xb3, 0x29, 0x3e,
  0xb2, 0xdc, 0x3b, 0xbe, 0xb0, 0x98, 0x95, 0xbd, 0x7a, 0x45, 0x6f, 0xbe,
  0xee, 0x5e, 0x87, 0x3e, 0x88, 0x33, 0x87, 0xbe, 0xe6, 0xed, 0x65, 0x3e,
  0x34, 0x2f, 0x18, 0x3e, 0x7e, 0x12, 0x7a, 0x3e, 0x40, 0x23, 0x82, 0x3e,
  0x5f, 0x70, 0xab, 0xbe, 0x8c, 0x50, 0xd1, 0xbe, 0x97, 0xa6, 0xac, 0xbe,
  0x53, 0x8c, 0x30, 0x3d, 0xdd, 0x0a, 0x88, 0x3e, 0x91, 0xbd, 0xac, 0xbd,
  0x00, 0xd8, 0xae, 0xba, 0x78, 0x26, 0x3b, 0xbe, 0xaf, 0x72, 0xe4, 0xbe,
  0x55, 0x6c, 0x00, 0xbe, 0xff, 0x01, 0x8d, 0x3e, 0x91, 0x61, 0x8b, 0xbc,
  0xef, 0xc9, 0x99, 0xbd, 0x9f, 0x79, 0x63, 0x3e, 0xb0, 0x9a, 0x4b, 0x3d,
  0xa0, 0x36, 0x93, 0xbd, 0xfd, 0x02, 0x11, 0x3e, 0xea, 0x02, 0xab, 0xbe,
  0x2d, 0xcf, 0x9c, 0x3d, 0x1e, 0xc2, 0x9d, 0xbe, 0x4a, 0xa1, 0x1a, 0x3e,
  0x53, 0xe1, 0x8d, 0x3e, 0xe9, 0xbb, 0x20, 0xbe, 0xb5, 0xf8, 0x0e, 0xbe,
  0xcc, 0xea, 0x9f, 0x3e, 0x4a, 0x8e, 0x4d, 0xbe, 0x3b, 0xe0, 0x7a, 0x3e,
  0xba, 0x4b, 0x62, 0x3e, 0x64, 0x9b, 0x1c, 0x3e, 0xfc, 0xf4, 0x15, 0x3d,
  0x1e, 0x77, 0x60, 0xbd, 0x44, 0x82, 0x40, 0xbe, 0x39, 0xcf, 0xc3, 0x3c,
  0xca, 0x35, 0xa2, 0x3e, 0xa9, 0x29, 0x23, 0x3e, 0x3a, 0xad, 0x82, 0x3e,
  0x94, 0xb3, 0xa4, 0xbd, 0x72, 0x7f, 0xa2, 0xbe, 0x8d, 0xb9, 0x8c, 0xbe,
  0xb0, 0xe9, 0xaa, 0xbe, 0x97, 0x76, 0xc3, 0xbe, 0x56, 0x98, 0x57, 0xbe,
  0x94, 0x98, 0x3a, 0x3e, 0xbd, 0xdc, 0x8e, 0xbe, 0xbd, 0xee, 0xeb, 0xbd,
  0xb0, 0x6c, 0x37, 0x3d, 0xea, 0x47, 0x64, 0xbe, 0xb2, 0x34, 0x2d, 0x3e,
  0xe9, 0x77, 0x84, 0x3d, 0x4b, 0x6d, 0x8d, 0x3e, 0xce, 0x1d, 0x10, 0x3c,
  0x26, 0xbb, 0x50, 0xbe, 0xdf, 0x12, 0xa8, 0xbe, 0x79, 0x14, 0x6a, 0xbd,
  0xc3, 0x56, 0xd7, 0xbe, 0x10, 0x5d, 0x69, 0xbd, 0xf1, 0x37, 0x33, 0xbc,
  0xe1, 0x18, 0x85, 0xbe, 0x58, 0x37, 0x6a, 0xbd, 0x40, 0x5c, 0x3c, 0xbe,
  0x03, 0xd2, 0x79, 0x3e, 0x5d, 0xa5, 0xc1, 0xbd, 0xe5, 0x27, 0x19, 0xbe,
  0xb7, 0x53, 0x0e, 0xbd, 0xc1, 0x56, 0x5f, 0xbe, 0x7e, 0xfe, 0xf1, 0x3d,
  0x7c, 0x3a, 0x5b, 0x3e, 0xbb, 0x14, 0x88, 0x3e, 0xbe, 0x6d, 0x7f, 0x3e,
  0x55, 0x2a, 0x03, 0xbf, 0xd6, 0xa3, 0x56, 0x3e, 0x4e, 0x19, 0x48, 0x3e,
  0x32, 0xd9, 0xac, 0xbc, 0xe3, 0x8e, 0xa1, 0x3e, 0xb7, 0xa3, 0xb7, 0x3d,
  0x5b, 0x99, 0x77, 0x3e, 0x8f, 0xfe, 0xa0, 0x3e, 0xf0, 0xa0, 0xc0, 0xbd,
  0x3f, 0x15, 0x42, 0xbe, 0x1d, 0xe2, 0x8c, 0x3e, 0xf5, 0x9c, 0x6f, 0x3e,
  0xab, 0xb4, 0x9b, 0x3e, 0x5a, 0x91, 0x70, 0x3e, 0x72, 0x8f, 0xad, 0xbe,
  0xed, 0xbb, 0x4c, 0xbe, 0xd3, 0xf0, 0x6d, 0xbe, 0xf5, 0x04, 0x07, 0xbe,
  0x00, 0x8d, 0xcb, 0x3d, 0xab, 0xfd, 0x81, 0xbe, 0xd2, 0xa9, 0x06, 0xbe,
  0x49, 0x48, 0x86, 0xbe, 0xb2, 0x37, 0x7b, 0x3e, 0xd8, 0x53, 0x54, 0xbd,
  0x82, 0xbc, 0x1d, 0x3b, 0x48, 0x28, 0xfa, 0x3d, 0x69, 0x85, 0x93, 0x3e,
  0xe8, 0x28, 0x92, 0xbe, 0x63, 0x3c, 0x9b, 0xbd, 0x3f, 0x1e, 0x61, 0xbe,
  0x2a, 0x27, 0x54, 0x3d, 0x2a, 0xc3, 0x46, 0x3e, 0x91, 0x49, 0x95, 0xbd,
  0xe2, 0xb6, 0x08, 0xbf, 0xf2, 0x7c, 0xa7, 0xbd, 0x0a, 0x1a, 0x0e, 0x3e,
  0x80, 0xdf, 0xd5, 0x3d, 0x85, 0x96, 0x9b, 0xbe, 0xa7, 0x72, 0x61, 0xbd,
  0x5c, 0x50, 0x8d, 0xbe, 0x0b, 0xa8, 0x9b, 0x3e, 0x3a, 0xa4, 0x7c, 0x3e,
  0x85, 0x81, 0xad, 0xbe, 0x45, 0xac, 0x27, 0x3e, 0x00, 0x93, 0x38, 0x3d,
  0xc4, 0x20, 0x65, 0x3e, 0x8e, 0x13, 0xbb, 0xbd, 0x6d, 0xc8, 0xfb, 0xbd,
  0xde, 0x31, 0x9e, 0x3e, 0x0e, 0xeb, 0xe3, 0x3d, 0x48, 0x59, 0x87, 0xbe,
  0x7c, 0x08, 0x5d, 0x3e, 0x88, 0xf4, 0xf7, 0x3d, 0x05, 0xf2, 0x12, 0xbe,
  0x8d, 0x05, 0x64, 0x3e, 0x5c, 0xe9, 0x91, 0xbe, 0x73, 0x22, 0xa6, 0xbe,
  0xf4, 0x4d, 0x52, 0x3e, 0x33, 0x68, 0xf5, 0x3d, 0xfb, 0x13, 0x9f, 0xbd,
  0x9a, 0x75, 0xf7, 0xbd, 0xdb, 0x1b, 0x9e, 0x3e, 0x27, 0xee, 0xae, 0x3e,
  0xa0, 0xea, 0xa0, 0xbe, 0xf8, 0xd1, 0x93, 0x3e, 0xec, 0x2c, 0xd5, 0xbd,
  0xd6, 0x3b, 0x91, 0xbe, 0xb1, 0x5f, 0x15, 0xbe, 0x88, 0xbe, 0x23, 0xbd,
  0x2e, 0xa4, 0x20, 0x3e, 0x45, 0xe3, 0xa0, 0xbe, 0x12, 0xc6, 0x9c, 0x3e,
  0x10, 0x35, 0x9f, 0xbe, 0x41, 0x7a, 0xa9, 0x3e, 0x20, 0xb6, 0x5b, 0x3c,
  0x6f, 0x00, 0x0a, 0x3e, 0xf0, 0x38, 0x7a, 0xbe, 0x1f, 0xca, 0x97, 0x3e,
  0x11, 0x3b, 0x9e, 0x3e, 0x87, 0x27, 0x26, 0x3e, 0x1b, 0xbc, 0x8f, 0x3e,
  0x52, 0xd0, 0x55, 0x3e, 0xd6, 0xf7, 0x3e, 0xbe, 0x58, 0x9b, 0x92, 0xbe,
  0x50, 0xf3, 0x86, 0xbc, 0x27, 0xa6, 0x97, 0x3e, 0x65, 0x45, 0x28, 0x3e,
  0x48, 0x4d, 0xf0, 0xbc, 0xc6, 0x8b, 0x76, 0xbe, 0xf2, 0xb2, 0x6c, 0xbe,
  0x38, 0x76, 0x98, 0x3d, 0x00, 0x03, 0x3f, 0x3e, 0xf0, 0xa9, 0xfc, 0xbd,
  0x82, 0x45, 0xb8, 0x3e, 0x25, 0x13, 0x87, 0xbe, 0x90, 0xdc, 0xc9, 0xbd,
  0xd8, 0x64, 0x5b, 0xbc, 0xea, 0x09, 0x8f, 0x3e, 0xf7, 0x8f, 0x23, 0x3e,
  0xe4, 0x4e, 0xed, 0xbd, 0x58, 0x5b, 0x98, 0x3d, 0xb0, 0x84, 0x1f, 0x3e,
  0x3c, 0xe1, 0x6c, 0x3e, 0xcc, 0xca, 0x21, 0xbe, 0x97, 0x10, 0x62, 0x3e,
  0xf0, 0x3d, 0xb9, 0xbc, 0x82, 0x32, 0xe4, 0xbd, 0x3c, 0xde, 0xb0, 0x3d,
  0xc2, 0x37, 0x23, 0x3e, 0x99, 0xa1, 0x59, 0xbe, 0x84, 0x8c, 0x66, 0xbe,
  0x20, 0x08, 0x85, 0x3e, 0x6d, 0xca, 0xac, 0x3e, 0x05, 0x02, 0x82, 0x3c,
  0x0c, 0x66, 0x8b, 0xbd, 0x9b, 0x7e, 0x25, 0xbd, 0x18, 0xd1, 0x8d, 0xbe,
  0x3b, 0x6a, 0x3e, 0xbe, 0x8d, 0x5b, 0x54, 0x3e, 0x2d, 0xab, 0x9e, 0x3e,
  0x12, 0xa6, 0xc5, 0x3d, 0xcf, 0x22, 0x3b, 0x3e, 0x12, 0x59, 0x8f, 0xbe,
  0xcd, 0x8f, 0x93, 0x3e, 0x0f, 0xf8, 0x5f, 0xbc, 0xb8, 0x54, 0x3d, 0x3d,
  0x6f, 0x5a, 0x8a, 0xbe, 0xce, 0x85, 0x06, 0x3e, 0xff, 0x33, 0x95, 0x3e,
  0x02, 0xae, 0x60, 0xbe, 0xef, 0x59, 0xcb, 0xbb, 0xea, 0xfb, 0xff, 0xff,
  0x04, 0x00, 0x00, 0x00, 0x80, 0x02, 0x00, 0x00, 0x79, 0x55, 0x18, 0x3f,
  0x7c, 0x74, 0x9b, 0x3e, 0xe7, 0x0e, 0xb4, 0xbd, 0x34, 0xe6, 0x35, 0x3c,
  0x7d, 0x45, 0xc5, 0xbe, 0xb6, 0xd6, 0x8e, 0x3e, 0xb9, 0xe3, 0x78, 0xbe,
  0x4a, 0x03, 0xa9, 0x3e, 0x5a, 0x7a, 0x2c, 0xbe, 0x25, 0x22, 0xcb, 0xbe,
  0x1d, 0x96, 0x1c, 0xbe, 0xd9, 0x06, 0x96, 0x3e, 0x34, 0x7c, 0xb6, 0x3e,
  0x57, 0x94, 0xa5, 0xbd, 0x94, 0x44, 0x88, 0x3e, 0xa3, 0x7b, 0x90, 0x3e,
  0x97, 0xab, 0xa3, 0xbe, 0xb2, 0xe2, 0x50, 0xbe, 0x67, 0x2f, 0x72, 0x3e,
  0xf0, 0xe3, 0x76, 0xbd, 0x5a, 0xcb, 0x94, 0xbe, 0x09, 0x31, 0x70, 0x3e,
  0x71, 0x31, 0xfd, 0xbd, 0x62, 0x48, 0xd6, 0x3e, 0x99, 0xfa, 0xa1, 0x3e,
  0xee, 0xa1, 0x8a, 0xbe, 0x39, 0xfd, 0x88, 0xbe, 0x6c, 0x27, 0xbb, 0xbe,
  0xf0, 0xfb, 0xb2, 0x3e, 0x2b, 0x67, 0x1b, 0x3c, 0x67, 0x35, 0x49, 0x3e,
  0xc7, 0x64, 0x03, 0xbf, 0xf6, 0xc8, 0xbc, 0xbe, 0x98, 0x53, 0x2a, 0x3e,
  0xe6, 0xb4, 0x98, 0xbd, 0xbc, 0x9c, 0x9b, 0x3e, 0xe0, 0xb9, 0xed, 0xbc,
  0x2c, 0xa2, 0x61, 0xbe, 0xd6, 0xe6, 0xc4, 0xbe, 0xcb, 0x3c, 0x7b, 0xbe,
  0xbb, 0x25, 0xf2, 0x3e, 0xa0, 0x98, 0xd6, 0x3c, 0x1e, 0x6e, 0x58, 0x3e,
  0x5d, 0xd2, 0x34, 0x3d, 0xb9, 0xfa, 0xfb, 0xbd, 0x80, 0xf2, 0x83, 0x3d,
  0xa2, 0x86, 0x92, 0xbe, 0x2c, 0x93, 0x84, 0x3d, 0xab, 0x30, 0x29, 0xbe,
  0x20, 0x05, 0xfa, 0x3d, 0xc1, 0xe9, 0x0d, 0x3e, 0x83, 0xf3, 0x37, 0xbe,
  0x81, 0x4d, 0xa9, 0xbe, 0x70, 0x8d, 0x62, 0x3d, 0xc6, 0xd9, 0xb1, 0xbe,
  0x9e, 0x3c, 0x75, 0xbe, 0x3a, 0x9b, 0xa8, 0xbe, 0x80, 0x95, 0x3b, 0xbe,
  0x25, 0x4f, 0x89, 0x3e, 0xae, 0x0f, 0xaa, 0x3e, 0x97, 0x24, 0xe9, 0xbe,
  0x7c, 0x52, 0x80, 0xbe, 0x77, 0xcb, 0xc7, 0x3d, 0xea, 0x8f, 0x49, 0x3d,
  0xa4, 0x8b, 0x70, 0xbe, 0x74, 0xe8, 0x3b, 0xbd, 0xc9, 0x0f, 0x18, 0xbe,
  0xfe, 0x43, 0xd7, 0x3d, 0x58, 0xa0, 0x97, 0x3e, 0x81, 0x9c, 0xd4, 0xbe,
  0xa4, 0x8d, 0x41, 0xbe, 0x7d, 0xdf, 0xea, 0xbe, 0x43, 0xe0, 0xed, 0xbb,
  0x11, 0xa8, 0x2a, 0x3e, 0x19, 0x7c, 0x2c, 0x3e, 0x53, 0xc8, 0x8a, 0xbe,
  0x2f, 0xca, 0xbc, 0xbe, 0x90, 0x5a, 0xaa, 0x3e, 0x28, 0x25, 0x99, 0xbe,
  0x17, 0xca, 0x65, 0xbe, 0xd8, 0x6a, 0xbe, 0xbd, 0x55, 0x14, 0x55, 0xbe,
  0x5d, 0x30, 0x61, 0x3d, 0x38, 0x6a, 0x2d, 0xbd, 0xb9, 0x1c, 0xe1, 0x3e,
  0x77, 0x08, 0x2c, 0xbe, 0xb4, 0x3b, 0x42, 0x3e, 0x06, 0x49, 0x95, 0x3e,
  0x2a, 0xe8, 0x69, 0xbe, 0x35, 0x3d, 0x82, 0xbe, 0x63, 0xf9, 0x08, 0xbf,
  0xc2, 0xdc, 0xfb, 0x3c, 0xb6, 0x64, 0x88, 0x3d, 0x43, 0x40, 0x3a, 0x3e,
  0xbd, 0x53, 0x79, 0xbe, 0x18, 0x46, 0x95, 0x3e, 0x02, 0x29, 0x59, 0x3d,
  0xaf, 0x3b, 0xeb, 0x3d, 0x3e, 0x9f, 0xff, 0x3a, 0xed, 0x82, 0x5d, 0x3e,
  0xae, 0x53, 0x6f, 0xbe, 0xf8, 0x91, 0x04, 0x3e, 0xf4, 0x94, 0x9f, 0xbe,
  0x3b, 0x2f, 0x91, 0xbd, 0x88, 0xb4, 0x65, 0x3e, 0x1f, 0x3d, 0xee, 0xbd,
  0xd4, 0x8a, 0xbb, 0xbe, 0x9c, 0x48, 0xe3, 0xbd, 0xa6, 0xe3, 0xb8, 0x3e,
  0x22, 0xbb, 0x91, 0x3d, 0x7c, 0xe1, 0xba, 0x3e, 0xd9, 0xf7, 0xb9, 0xbe,
  0x6f, 0x98, 0x8b, 0x3e, 0x10, 0xaf, 0xc7, 0x3c, 0x42, 0x17, 0x66, 0x3e,
  0xf0, 0xec, 0x81, 0x3e, 0x4b, 0x78, 0xe9, 0xbe, 0x2b, 0x99, 0x29, 0xbe,
  0x71, 0x17, 0x20, 0x3e, 0x1a, 0x1f, 0x22, 0xbe, 0xbd, 0xc3, 0xde, 0x3e,
  0x8e, 0x2d, 0x8e, 0x3e, 0x57, 0xf5, 0xc2, 0x3d, 0x87, 0x15, 0x75, 0xbe,
  0x7e, 0x44, 0xcb, 0x3d, 0x36, 0x40, 0x00, 0x3e, 0xf5, 0x1b, 0x8c, 0x3d,
  0x9d, 0x60, 0x4b, 0x3e, 0xab, 0xbf, 0xa1, 0x3e, 0x0a, 0x81, 0x4d, 0xbd,
  0x0b, 0x39, 0x60, 0x3d, 0x11, 0x88, 0x96, 0x3e, 0x0f, 0x89, 0x3e, 0x3e,
  0x7c, 0xb2, 0xbd, 0x3e, 0x53, 0xfd, 0xec, 0xbe, 0x00, 0x4a, 0x2a, 0xbd,
  0x4f, 0x81, 0x03, 0xbe, 0x57, 0xd3, 0x53, 0xbe, 0x64, 0x00, 0xad, 0x3e,
  0x0b, 0x94, 0xf4, 0xbd, 0x8c, 0xec, 0xab, 0x3d, 0x12, 0x92, 0xbd, 0xbe,
  0x1f, 0x62, 0x55, 0xbe, 0xe9, 0x99, 0xaa, 0xbe, 0xb0, 0x44, 0x40, 0x3e,
  0xef, 0x4c, 0x16, 0x3d, 0x9e, 0xaa, 0x95, 0x3e, 0xb9, 0x88, 0x38, 0x3e,
  0x0e, 0x45, 0xb0, 0xbe, 0x16, 0x1d, 0xab, 0x3e, 0xb9, 0x9d, 0x33, 0xbc,
  0x7a, 0x3e, 0x3e, 0xbd, 0xfb, 0x85, 0x12, 0xbd, 0xf0, 0xfb, 0x48, 0xbe,
  0xaa, 0x83, 0x28, 0x3e, 0x5b, 0x4d, 0xda, 0x3c, 0x2f, 0x59, 0x7f, 0x3e,
  0x4d, 0xc0, 0x79, 0xbe, 0x97, 0xde, 0x60, 0xbe, 0xf9, 0x06, 0xea, 0xbd,
  0x76, 0xfe, 0xff, 0xff, 0x04, 0x00, 0x00, 0x00, 0x80, 0x00, 0x00, 0x00,
  0xc4, 0x19, 0xc1, 0x3c, 0x00, 0x00, 0x00, 0x00, 0xd1, 0x11, 0x44, 0x3c,
  0x5a, 0xe2, 0x55, 0x3d, 0x05, 0x4d, 0x8e, 0x3c, 0x86, 0x5e, 0x60, 0xbb,
  0xcc, 0x7f, 0x13, 0xbe, 0x00, 0x00, 0x00, 0x00, 0x31, 0x5b, 0x00, 0x3d,
  0x00, 0x00, 0x00, 0x00, 0x87, 0x5b, 0x81, 0xbc, 0x6a, 0x6c, 0xd8, 0xbc,
  0x1f, 0x01, 0x84, 0xba, 0x99, 0x5f, 0xbf, 0xbd, 0xea, 0x78, 0xc8, 0xbd,
  0x00, 0x00, 0x00, 0x00, 0x4d, 0x43, 0xb3, 0x3c, 0x00, 0x00, 0x00, 0x00,
  0xda, 0x42, 0xd0, 0xbd, 0xd2, 0xb9, 0x51, 0xbd, 0x39, 0x29, 0x8e, 0xbc,
  0x88, 0x6c, 0xd9, 0x3c, 0xaf, 0xcc, 0xb0, 0xbc, 0xf5, 0x66, 0xf2, 0xbd,
  0xbb, 0x46, 0x18, 0x3d, 0x95, 0x68, 0x30, 0x3d, 0x84, 0x96, 0x6c, 0xbd,
  0xcf, 0xcd, 0xb6, 0x3c, 0x00, 0x00, 0x00, 0x00, 0x34, 0x7b, 0xcd, 0xbc,
  0x3b, 0xf5, 0x90, 0xbc, 0x88, 0xc6, 0xfc, 0xbc, 0x02, 0xff, 0xff, 0xff,
  0x04, 0x00, 0x00, 0x00, 0x40, 0x00, 0x00, 0x00, 0x7b, 0xcd, 0x30, 0x3d,
  0x00, 0x37, 0xeb, 0x3c, 0x1b, 0x92, 0x14, 0xbd, 0xda, 0x58, 0x9c, 0x3b,
  0x10, 0x27, 0x78, 0x3d, 0x00, 0x00, 0x00, 0x00, 0xe1, 0xbb, 0x88, 0xbd,
  0x6a, 0x73, 0xc5, 0xbb, 0x00, 0x00, 0x00, 0x00, 0x46, 0xbd, 0x86, 0xbd,
  0x57, 0xa2, 0x90, 0x3a, 0xc1, 0x2c, 0x03, 0xbd, 0xc4, 0xc4, 0x68, 0xbc,
  0xe2, 0xe8, 0xce, 0xbb, 0x51, 0x87, 0x28, 0xbd, 0x33, 0x8c, 0xa2, 0xb9,
  0x4e, 0xff, 0xff, 0xff, 0x04, 0x00, 0x00, 0x00, 0x10, 0x00, 0x00, 0x00,
  0x1a, 0xdb, 0x3f, 0xbd, 0x9e, 0xa3, 0xf0, 0x3c, 0x30, 0x12, 0x12, 0x3e,
  0xe0, 0xc8, 0x25, 0xbd, 0x40, 0xfa, 0xff, 0xff, 0x44, 0xfa, 0xff, 0xff,
  0x0f, 0x00, 0x00, 0x00, 0x4d, 0x4c, 0x49, 0x52, 0x20, 0x43, 0x6f, 0x6e,
  0x76, 0x65, 0x72, 0x74, 0x65, 0x64, 0x2e, 0x00, 0x01, 0x00, 0x00, 0x00,
  0x14, 0x00, 0x00, 0x00, 0x00, 0x00, 0x0e, 0x00, 0x18, 0x00, 0x14, 0x00,
  0x10, 0x00, 0x0c, 0x00, 0x08, 0x00, 0x04, 0x00, 0x0e, 0x00, 0x00, 0x00,
  0x14, 0x00, 0x00, 0x00, 0x1c, 0x00, 0x00, 0x00, 0x24, 0x01, 0x00, 0x00,
  0x28, 0x01, 0x00, 0x00, 0x2c, 0x01, 0x00, 0x00, 0x04, 0x00, 0x00, 0x00,
  0x6d, 0x61, 0x69, 0x6e, 0x00, 0x00, 0x00, 0x00, 0x04, 0x00, 0x00, 0x00,
  0xcc, 0x00, 0x00, 0x00, 0x84, 0x00, 0x00, 0x00, 0x50, 0x00, 0x00, 0x00,
  0x14, 0x00, 0x00, 0x00, 0x00, 0x00, 0x0e, 0x00, 0x1a, 0x00, 0x14, 0x00,
  0x10, 0x00, 0x0c, 0x00, 0x0b, 0x00, 0x04, 0x00, 0x0e, 0x00, 0x00, 0x00,
  0x1c, 0x00, 0x00, 0x00, 0x00, 0x00, 0x00, 0x09, 0x1c, 0x00, 0x00, 0x00,
  0x20, 0x00, 0x00, 0x00, 0x01, 0x00, 0x00, 0x00, 0x00, 0x00, 0x06, 0x00,
  0x08, 0x00, 0x04, 0x00, 0x06, 0x00, 0x00, 0x00, 0x00, 0x00, 0x80, 0x3f,
  0x01, 0x00, 0x00, 0x00, 0x0a, 0x00, 0x00, 0x00, 0x01, 0x00, 0x00, 0x00,
  0x09, 0x00, 0x00, 0x00, 0x9a, 0xff, 0xff, 0xff, 0x10, 0x00, 0x00, 0x00,
  0x00, 0x00, 0x00, 0x08, 0x0c, 0x00, 0x00, 0x00, 0x10, 0x00, 0x00, 0x00,
  0x08, 0xfb, 0xff, 0xff, 0x01, 0x00, 0x00, 0x00, 0x09, 0x00, 0x00, 0x00,
  0x03, 0x00, 0x00, 0x00, 0x08, 0x00, 0x00, 0x00, 0x06, 0x00, 0x00, 0x00,
  0x01, 0x00, 0x00, 0x00, 0xca, 0xff, 0xff, 0xff, 0x10, 0x00, 0x00, 0x00,
  0x00, 0x00, 0x00, 0x08, 0x10, 0x00, 0x00, 0x00, 0x14, 0x00, 0x00, 0x00,
  0xba, 0xff, 0xff, 0xff, 0x00, 0x00, 0x00, 0x01, 0x01, 0x00, 0x00, 0x00,
  0x08, 0x00, 0x00, 0x00, 0x03, 0x00, 0x00, 0x00, 0x07, 0x00, 0x00, 0x00,
  0x05, 0x00, 0x00, 0x00, 0x02, 0x00, 0x00, 0x00, 0x00, 0x00, 0x0e, 0x00,
  0x16, 0x00, 0x00, 0x00, 0x10, 0x00, 0x0c, 0x00, 0x0b, 0x00, 0x04, 0x00,
  0x0e, 0x00, 0x00, 0x00, 0x18, 0x00, 0x00, 0x00, 0x00, 0x00, 0x00, 0x08,
  0x18, 0x00, 0x00, 0x00, 0x1c, 0x00, 0x00, 0x00, 0x00, 0x00, 0x06, 0x00,
  0x08, 0x00, 0x07, 0x00, 0x06, 0x00, 0x00, 0x00, 0x00, 0x00, 0x00, 0x01,
  0x01, 0x00, 0x00, 0x00, 0x07, 0x00, 0x00, 0x00, 0x03, 0x00, 0x00, 0x00,
  0x00, 0x00, 0x00, 0x00, 0x04, 0x00, 0x00, 0x00, 0x03, 0x00, 0x00, 0x00,
  0x01, 0x00, 0x00, 0x00, 0x0a, 0x00, 0x00, 0x00, 0x01, 0x00, 0x00, 0x00,
  0x00, 0x00, 0x00, 0x00, 0x0b, 0x00, 0x00, 0x00, 0x20, 0x04, 0x00, 0x00,
  0xb0, 0x03, 0x00, 0x00, 0x40, 0x03, 0x00, 0x00, 0xe8, 0x02, 0x00, 0x00,
  0x9c, 0x02, 0x00, 0x00, 0x50, 0x02, 0x00, 0x00, 0x04, 0x02, 0x00, 0x00,
  0x70, 0x01, 0x00, 0x00, 0xdc, 0x00, 0x00, 0x00, 0x60, 0x00, 0x00, 0x00,
  0x04, 0x00, 0x00, 0x00, 0x22, 0xfc, 0xff, 0xff, 0x00, 0x00, 0x00, 0x01,
  0x14, 0x00, 0x00, 0x00, 0x1c, 0x00, 0x00, 0x00, 0x1c, 0x00, 0x00, 0x00,
  0x0b, 0x00, 0x00, 0x00, 0x34, 0x00, 0x00, 0x00, 0x02, 0x00, 0x00, 0x00,
  0xff, 0xff, 0xff, 0xff, 0x04, 0x00, 0x00, 0x00, 0x0c, 0xfc, 0xff, 0xff,
  0x19, 0x00, 0x00, 0x00, 0x53, 0x74, 0x61, 0x74, 0x65, 0x66, 0x75, 0x6c,
  0x50, 0x61, 0x72, 0x74, 0x69, 0x74, 0x69, 0x6f, 0x6e, 0x65, 0x64, 0x43,
  0x61, 0x6c, 0x6c, 0x3a, 0x30, 0x00, 0x00, 0x00, 0x02, 0x00, 0x00, 0x00,
  0x01, 0x00, 0x00, 0x00, 0x04, 0x00, 0x00, 0x00, 0x7a, 0xfc, 0xff, 0xff,
  0x00, 0x00, 0x00, 0x01, 0x14, 0x00, 0x00, 0x00, 0x1c, 0x00, 0x00, 0x00,
  0x1c, 0x00, 0x00, 0x00, 0x0a, 0x00, 0x00, 0x00, 0x54, 0x00, 0x00, 0x00,
  0x02, 0x00, 0x00, 0x00, 0xff, 0xff, 0xff, 0xff, 0x04, 0x00, 0x00, 0x00,
  0x64, 0xfc, 0xff, 0xff, 0x38, 0x00, 0x00, 0x00, 0x73, 0x65, 0x71, 0x75,
  0x65, 0x6e, 0x74, 0x69, 0x61, 0x6c, 0x5f, 0x32, 0x2f, 0x64, 0x65, 0x6e,
  0x73, 0x65, 0x5f, 0x38, 0x2f, 0x4d, 0x61, 0x74, 0x4d, 0x75, 0x6c, 0x3b,
  0x73, 0x65, 0x71, 0x75, 0x65, 0x6e, 0x74, 0x69, 0x61, 0x6c, 0x5f, 0x32,
  0x2f, 0x64, 0x65, 0x6e, 0x73, 0x65, 0x5f, 0x38, 0x2f, 0x42, 0x69, 0x61,
  0x73, 0x41, 0x64, 0x64, 0x00, 0x00, 0x00, 0x00, 0x02, 0x00, 0x00, 0x00,
  0x01, 0x00, 0x00, 0x00, 0x04, 0x00, 0x00, 0x00, 0xf2, 0xfc, 0xff, 0xff,
  0x00, 0x00, 0x00, 0x01, 0x14, 0x00, 0x00, 0x00, 0x1c, 0x00, 0x00, 0x00,
  0x1c, 0x00, 0x00, 0x00, 0x09, 0x00, 0x00, 0x00, 0x6c, 0x00, 0x00, 0x00,
  0x02, 0x00, 0x00, 0x00, 0xff, 0xff, 0xff, 0xff, 0x10, 0x00, 0x00, 0x00,
  0xdc, 0xfc, 0xff, 0xff, 0x52, 0x00, 0x00, 0x00, 0x73, 0x65, 0x71, 0x75,
  0x65, 0x6e, 0x74, 0x69, 0x61, 0x6c, 0x5f, 0x32, 0x2f, 0x64, 0x65, 0x6e,
  0x73, 0x65, 0x5f, 0x37, 0x2f, 0x4d, 0x61, 0x74, 0x4d, 0x75, 0x6c, 0x3b,
  0x73, 0x65, 0x71, 0x75, 0x65, 0x6e, 0x74, 0x69, 0x61, 0x6c, 0x5f, 0x32,
  0x2f, 0x64, 0x65, 0x6e, 0x73, 0x65, 0x5f, 0x37, 0x2f, 0x52, 0x65, 0x6c,
  0x75, 0x3b, 0x73, 0x65, 0x71, 0x75, 0x65, 0x6e, 0x74, 0x69, 0x61, 0x6c,
  0x5f, 0x32, 0x2f, 0x64, 0x65, 0x6e, 0x73, 0x65, 0x5f, 0x37, 0x2f, 0x42,
  0x69, 0x61, 0x73, 0x41, 0x64, 0x64, 0x00, 0x00, 0x02, 0x00, 0x00, 0x00,
  0x01, 0x00, 0x00, 0x00, 0x10, 0x00, 0x00, 0x00, 0x82, 0xfd, 0xff, 0xff,
  0x00, 0x00, 0x00, 0x01, 0x14, 0x00, 0x00, 0x00, 0x1c, 0x00, 0x00, 0x00,
  0x1c, 0x00, 0x00, 0x00, 0x08, 0x00, 0x00, 0x00, 0x6c, 0x00, 0x00, 0x00,
  0x02, 0x00, 0x00, 0x00, 0xff, 0xff, 0xff, 0xff, 0x20, 0x00, 0x00, 0x00,
  0x6c, 0xfd, 0xff, 0xff, 0x52, 0x00, 0x00, 0x00, 0x73, 0x65, 0x71, 0x75,
  0x65, 0x6e, 0x74, 0x69, 0x61, 0x6c, 0x5f, 0x32, 0x2f, 0x64, 0x65, 0x6e,
  0x73, 0x65, 0x5f, 0x36, 0x2f, 0x4d, 0x61, 0x74, 0x4d, 0x75, 0x6c, 0x3b,
  0x73, 0x65, 0x71, 0x75, 0x65, 0x6e, 0x74, 0x69, 0x61, 0x6c, 0x5f, 0x32,
  0x2f, 0x64, 0x65, 0x6e, 0x73, 0x65, 0x5f, 0x36, 0x2f, 0x52, 0x65, 0x6c,
  0x75, 0x3b, 0x73, 0x65, 0x71, 0x75, 0x65, 0x6e, 0x74, 0x69, 0x61, 0x6c,
  0x5f, 0x32, 0x2f, 0x64, 0x65, 0x6e, 0x73, 0x65, 0x5f, 0x36, 0x2f, 0x42,
  0x69, 0x61, 0x73, 0x41, 0x64, 0x64, 0x00, 0x00, 0x02, 0x00, 0x00, 0x00,
  0x01, 0x00, 0x00, 0x00, 0x20, 0x00, 0x00, 0x00, 0x7e, 0xfe, 0xff, 0xff,
  0x00, 0x00, 0x00, 0x01, 0x10, 0x00, 0x00, 0x00, 0x10, 0x00, 0x00, 0x00,
  0x07, 0x00, 0x00, 0x00, 0x28, 0x00, 0x00, 0x00, 0xec, 0xfd, 0xff, 0xff,
  0x1b, 0x00, 0x00, 0x00, 0x73, 0x65, 0x71, 0x75, 0x65, 0x6e, 0x74, 0x69,
  0x61, 0x6c, 0x5f, 0x32, 0x2f, 0x64, 0x65, 0x6e, 0x73, 0x65, 0x5f, 0x38,
  0x2f, 0x4d, 0x61, 0x74, 0x4d, 0x75, 0x6c, 0x00, 0x02, 0x00, 0x00, 0x00,
  0x04, 0x00, 0x00, 0x00, 0x10, 0x00, 0x00, 0x00, 0xc6, 0xfe, 0xff, 0xff,
  0x00, 0x00, 0x00, 0x01, 0x10, 0x00, 0x00, 0x00, 0x10, 0x00, 0x00, 0x00,
  0x06, 0x00, 0x00, 0x00, 0x28, 0x00, 0x00, 0x00, 0x34, 0xfe, 0xff, 0xff,
  0x1b, 0x00, 0x00, 0x00, 0x73, 0x65, 0x71, 0x75, 0x65, 0x6e, 0x74, 0x69,
  0x61, 0x6c, 0x5f, 0x32, 0x2f, 0x64, 0x65, 0x6e, 0x73, 0x65, 0x5f, 0x37,
  0x2f, 0x4d, 0x61, 0x74, 0x4d, 0x75, 0x6c, 0x00, 0x02, 0x00, 0x00, 0x00,
  0x10, 0x00, 0x00, 0x00, 0x20, 0x00, 0x00, 0x00, 0x0e, 0xff, 0xff, 0xff,
  0x00, 0x00, 0x00, 0x01, 0x10, 0x00, 0x00, 0x00, 0x10, 0x00, 0x00, 0x00,
  0x05, 0x00, 0x00, 0x00, 0x28, 0x00, 0x00, 0x00, 0x7c, 0xfe, 0xff, 0xff,
  0x1b, 0x00, 0x00, 0x00, 0x73, 0x65, 0x71, 0x75, 0x65, 0x6e, 0x74, 0x69,
  0x61, 0x6c, 0x5f, 0x32, 0x2f, 0x64, 0x65, 0x6e, 0x73, 0x65, 0x5f, 0x36,
  0x2f, 0x4d, 0x61, 0x74, 0x4d, 0x75, 0x6c, 0x00, 0x02, 0x00, 0x00, 0x00,
  0x20, 0x00, 0x00, 0x00, 0x05, 0x00, 0x00, 0x00, 0x56, 0xff, 0xff, 0xff,
  0x00, 0x00, 0x00, 0x01, 0x10, 0x00, 0x00, 0x00, 0x10, 0x00, 0x00, 0x00,
  0x04, 0x00, 0x00, 0x00, 0x38, 0x00, 0x00, 0x00, 0xc4, 0xfe, 0xff, 0xff,
  0x2b, 0x00, 0x00, 0x00, 0x73, 0x65, 0x71, 0x75, 0x65, 0x6e, 0x74, 0x69,
  0x61, 0x6c, 0x5f, 0x32, 0x2f, 0x64, 0x65, 0x6e, 0x73, 0x65, 0x5f, 0x36,
  0x2f, 0x42, 0x69, 0x61, 0x73, 0x41, 0x64, 0x64, 0x2f, 0x52, 0x65, 0x61,
  0x64, 0x56, 0x61, 0x72, 0x69, 0x61, 0x62, 0x6c, 0x65, 0x4f, 0x70, 0x00,
  0x01, 0x00, 0x00, 0x00, 0x20, 0x00, 0x00, 0x00, 0xaa, 0xff, 0xff, 0xff,
  0x00, 0x00, 0x00, 0x01, 0x10, 0x00, 0x00, 0x00, 0x10, 0x00, 0x00, 0x00,
  0x03, 0x00, 0x00, 0x00, 0x38, 0x00, 0x00, 0x00, 0x18, 0xff, 0xff, 0xff,
  0x2b, 0x00, 0x00, 0x00, 0x73, 0x65, 0x71, 0x75, 0x65, 0x6e, 0x74, 0x69,
  0x61, 0x6c, 0x5f, 0x32, 0x2f, 0x64, 0x65, 0x6e, 0x73, 0x65, 0x5f, 0x37,
  0x2f, 0x42, 0x69, 0x61, 0x73, 0x41, 0x64, 0x64, 0x2f, 0x52, 0x65, 0x61,
  0x64, 0x56, 0x61, 0x72, 0x69, 0x61, 0x62, 0x6c, 0x65, 0x4f, 0x70, 0x00,
  0x01, 0x00, 0x00, 0x00, 0x10, 0x00, 0x00, 0x00, 0x00, 0x00, 0x16, 0x00,
  0x18, 0x00, 0x14, 0x00, 0x00, 0x00, 0x10, 0x00, 0x0c, 0x00, 0x08, 0x00,
  0x00, 0x00, 0x00, 0x00, 0x00, 0x00, 0x07, 0x00, 0x16, 0x00, 0x00, 0x00,
  0x00, 0x00, 0x00, 0x01, 0x10, 0x00, 0x00, 0x00, 0x10, 0x00, 0x00, 0x00,
  0x02, 0x00, 0x00, 0x00, 0x38, 0x00, 0x00, 0x00, 0x84, 0xff, 0xff, 0xff,
  0x2b, 0x00, 0x00, 0x00, 0x73, 0x65, 0x71, 0x75, 0x65, 0x6e, 0x74, 0x69,
  0x61, 0x6c, 0x5f, 0x32, 0x2f, 0x64, 0x65, 0x6e, 0x73, 0x65, 0x5f, 0x38,
  0x2f, 0x42, 0x69, 0x61, 0x73, 0x41, 0x64, 0x64, 0x2f, 0x52, 0x65, 0x61,
  0x64, 0x56, 0x61, 0x72, 0x69, 0x61, 0x62, 0x6c, 0x65, 0x4f, 0x70, 0x00,
  0x01, 0x00, 0x00, 0x00, 0x04, 0x00, 0x00, 0x00, 0x00, 0x00, 0x16, 0x00,
  0x1c, 0x00, 0x18, 0x00, 0x00, 0x00, 0x14, 0x00, 0x10, 0x00, 0x0c, 0x00,
  0x00, 0x00, 0x00, 0x00, 0x08, 0x00, 0x07, 0x00, 0x16, 0x00, 0x00, 0x00,
  0x00, 0x00, 0x00, 0x01, 0x14, 0x00, 0x00, 0x00, 0x20, 0x00, 0x00, 0x00,
  0x20, 0x00, 0x00, 0x00, 0x01, 0x00, 0x00, 0x00, 0x3c, 0x00, 0x00, 0x00,
  0x02, 0x00, 0x00, 0x00, 0xff, 0xff, 0xff, 0xff, 0x05, 0x00, 0x00, 0x00,
  0x04, 0x00, 0x04, 0x00, 0x04, 0x00, 0x00, 0x00, 0x1f, 0x00, 0x00, 0x00,
  0x73, 0x65, 0x72, 0x76, 0x69, 0x6e, 0x67, 0x5f, 0x64, 0x65, 0x66, 0x61,
  0x75, 0x6c, 0x74, 0x5f, 0x64, 0x65, 0x6e, 0x73, 0x65, 0x5f, 0x36, 0x5f,
  0x69, 0x6e, 0x70, 0x75, 0x74, 0x3a, 0x30, 0x00, 0x02, 0x00, 0x00, 0x00,
  0x01, 0x00, 0x00, 0x00, 0x05, 0x00, 0x00, 0x00, 0x02, 0x00, 0x00, 0x00,
  0x20, 0x00, 0x00, 0x00, 0x04, 0x00, 0x00, 0x00, 0xf4, 0xff, 0xff, 0xff,
  0x19, 0x00, 0x00, 0x00, 0x00, 0x00, 0x00, 0x19, 0x0c, 0x00, 0x0c, 0x00,
  0x0b, 0x00, 0x00, 0x00, 0x00, 0x00, 0x04, 0x00, 0x0c, 0x00, 0x00, 0x00,
  0x09, 0x00, 0x00, 0x00, 0x00, 0x00, 0x00, 0x09
};

unsigned int modelo_tflite_len = sizeof(modelo_tflite);